#version: 0.2
Ġ t
Ġ a
i n
h e
Ġ Ġ
r e
o n
e r
Ġt he
a t
Ġ s
Ġ o
e n
Ġ c
e s
Ġ w
n d
i t
o r
i s
a l
Ġ p
in g
Ġ f
a n
e d
Ġ b
o u
a r
Ġ in
Ġo f
Ġ m
Ġa nd
i on
i c
Ġ d
Ġt o
ĠĠ ĠĠ
l e
r o
a s
en t
Ġ h
Ġt h
c t
Ġ e
Ġ re
e l
o m
i l
s t
Ġ l
Ġ n
e t
i m
v e
o l
at ion
Ġ g
i d
Ġ T
s e
Ġ is
u r
u t
r a
l y
c e
o t
â Ģ
c h
o w
i g
Ġb e
Ġ u
Ġf or
Ġs t
Ġ y
Ġ A
v er
a m
ĠĠ Ġ
Ġ S
Ġ on
u l
i r
Ġth at
Ġ I
Ġ C
a y
i f
it h
a d
Ġc on
Ġy ou
Ġa s
Ġp ro
he r
o d
Ġw ith
t er
ĠĠĠĠ ĠĠĠĠ
Ġa n
Ġo r
Ġw h
Ġ it
m ent
Ġa re
Ġa l
g e
es s
is t
Ġe x
Ġ (
er s
Ġd e
at e
a b
i es
o p
Ġ M
t h
e ct
re s
u s
Ġ P
ĠT he
Ġc om
i v
es t
u m
it y
Ġ he
q u
Ġ v
a c
il l
Ġ B
o re
e m
Ġw e
Ġs u
p p
o s
k e
a nd
ro m
n t
l d
or t
a in
an t
i ve
ig h
o c
Ġ H
Ġ W
i al
Ġc h
Ġb y
Ġ r
u d
Ġ E
ĠĠĠĠ ĠĠĠ
Ġc an
âĢ Ļ
Ġa t
u n
Ġn e
Ġh a
Ġ D
- -
u re
Ġ le
Ġ F
Ġs e
Ġ R
Ġf rom
Ġ en
r i
p e
ic al
ar t
o g
Ġw as
p t
ion s
p l
r ou
Ġn ot
Ġ N
Ġs h
Ġ im
igh t
Ġ =
ou t
Ċ ĠĠĠĠĠĠĠ
al l
Ġ L
Ġth is
Ġ G
Ġa b
a g
re d
p er
Ġha ve
Ġw or
Ġ âĢ
g h
ou r
in e
i z
Ġin t
om e
Ċ ĠĠĠĠĠĠĠĠ
u st
Ġu s
Ġyou r
ou ld
a ct
Ċ ĠĠĠ
a ge
o st
Ġp l
Ġ "
ar d
el l
t her
Ġthe ir
ul t
el f
at ed
f f
ic h
en d
an s
ou s
id e
r u
ation s
Ġ O
Ġa d
a k
Ġw he
d u
c l
Ġcon t
Ġre s
as t
Ġ k
Ġthe y
Ġcom p
T he
i b
' s
or m
i p
c c
Ġd is
Ġal l
a p
am e
Ġ U
ab le
on g
e ar
e re
i e
as s
Ġim p
a re
Ġw ill
an ce
ĠT h
in d
Ġwh ich
o od
ar y
Ġ J
u al
v el
ĠI n
e p
en ce
Ġd o
on e
k s
Ġc l
Ġm ore
r y
i a
Ġt e
Ġ j
ig n
u e
ent s
re at
Ġm e
Ġo ther
Ġu n
i le
Ġh as
a ch
Ġm an
im e
ct ion
il d
s o
res s
c es
Ġa r
Ġab out
Ġb ut
a v
Ġa pp
Ġp er
o o
ic e
it ion
at er
el y
âĢ Ŀ
Ġs p
a ke
as e
Ġe v
Ġo ut
or s
ac k
en s
Ġon e
ver y
f orm
Ġ if
-- --
or y
Ġs o
or d
a ce
in t
Ġwe re
b er
nd er
) .
Ġl i
Ġal so
ou nt
Ġp art
Ġcom m
Ġthe m
o se
a u
an g
c i
Ġst ud
c on
r it
i re
Ġp e
u b
n ow
Ġ qu
Ġu p
Ġs y
ing s
Ġwh o
Ġint o
ĠâĢ ľ
ou nd
is h
Ġp re
Ġthe se
Ġit s
ĠS t
ol og
if f
pe c
ĊĠĠĠĠĠĠĠĠ ĠĠĠ
rou gh
r ic
Ġf e
Ġbe c
Ġs ome
Ġt ra
a il
Ġ '
Ġh ow
Ġs elf
re e
Ġin d
it ies
) ,
k ing
Ġwhe n
ay s
p h
ver s
Ġe m
Ġh is
Ġ ro
if ic
Ġo ur
Ġm ay
Ġt ime
Ġu nder
ĠI t
ment s
Ġ K
at es
op le
n e
it e
Ġc ol
Ġthe re
Ġb et
ur n
c re
ĠTh is
Ġth an
ou gh
y s
Ġd iff
at ing
o b
t e
w e
ĠC h
at h
j ect
Ġt r
al ly
l ow
er v
Ġg o
m s
Ġcon s
Ġa g
Ġ ra
Ġo ver
le ct
Ġre c
x t
Ġp r
p le
ter n
i an
Ġa cc
Ġk now
c ess
Ġpe ople
Ġli ke
o ve
Ġhe l
Ġa ct
at a
on s
Ġd es
l ic
cl ud
i ous
# #
Ġy ear
ar n
Ġsu ch
Ġre l
Ġ V
Ġ Y
Ġbe en
ro w
e f
Ġu se
re n
Ġhel p
Ġne w
g et
) :
al th
ir st
er t
Ġ -
Ġwh at
au se
et h
l es
Ġw ould
Ġne ed
Ġth rough
f ul
st em
ur ing
rou nd
Ġs a
Ġa m
Ġe ff
Ġwor k
ic s
vel op
o v
Ġan y
o ol
Ġimp ort
Ġde f
Ġb l
ul ar
u res
Ġas s
Ġs pec
Ġg en
Ġt w
Ġh ad
ri b
m er
l l
Ġin clud
c ed
Ġof f
Ġm ost
is e
he d
s elf
Ġpro v
p ort
is s
ra ct
an ge
Ġp h
ic t
Ġre g
ation al
al s
Ġdiff ere
il ity
Ġa c
p ect
os s
Ġn o
I n
ot h
oo k
at ive
ar k
ol d
Ġo b
he n
Ġpro du
Ġin v
Ġm od
Ġde velop
Ġman y
Ġd i
Ġre m
Ġad d
Ġus ed
Ġon ly
Ġs c
f ter
Ġf irst
we en
ĠU n
Ġch ild
ib le
t en
ra m
u c
ĠâĢ ĵ
Ġsy stem
ar ch
Ġat t
Ġg et
as ed
Ġin st
ow er
c om
ce pt
Ġbet ween
Ġtw o
* *
Ġre t
if e
ch n
Ġf l
er m
Ġin f
Ġle arn
iz e
Ġwhe re
Ġs ur
w n
Ġsu b
Ġex am
it s
Ġin ter
Ġp o
ow n
e w
on d
Ġp ers
t s
Ġtr ans
p s
he s
Ġp ol
b le
Ġex per
Ġc ould
Ġc o
Ġsu pp
s s
ut ion
Ġn um
t ing
n g
Ġhe alth
Ġs m
t y
ur al
Ġsh ould
er n
g an
Ġst r
e ver
c y
Ġ her
u es
Ġw ell
Ġb u
il y
st and
id ent
er g
oc i
Ġt y
in es
i ed
Ġv al
Ġp res
e x
Ġex pl
_ _
Ġv ar
f ore
Ġre se
ak ing
Ġs im
Ġdiffere nt
Ġe very
iv es
olog y
in k
ic k
Ġ ke
ad e
Ġh igh
Ġwor ld
at ure
Ġ #
Ġev en
ĠH e
Ġfor m
ist s
a w
Ġw ater
Ġs ign
Ġj ust
---- ----
ant s
is m
Ġm ake
v ent
Ġex p
o y
' ,
n ess
u ch
f t
in s
ie w
Ġyear s
Ġre f
d s
Ġs et
Ġ [
Ġcomm un
Ġc re
c k
Ġdis c
ar g
Ġte chn
Ġd ata
ch ool
ĠR e
ic es
Ġre qu
ĊĠĠĠĠĠĠĠĠ ĠĠĠĠĠĠĠĠ
Ġc all
ical ly
Ġh um
ot her
. .
a x
ent ial
Ġ ed
ar s
Ġg ra
i el
Ġm y
Ġm ed
w ard
it ed
ru ct
h at
Ġse e
Ġd et
Ġthe n
Ġres ult
Ġth ose
ual ly
ag es
Ġw ay
Ġe ach
form ation
Ġin s
h ip
Ġbec ause
ect ion
Ġeff ect
Ġb el
Ġwh ile
Ġpro cess
Ġd uring
' t
Ġf ound
Ġar t
Ġc ount
Ġl ong
Ġp at
Ġde c
Ġf ol
Ġa fter
Ġgen er
r on
Ġex t
ar m
mer ic
Ġc ent
et y
and s
Ġin cre
( )
Ġl oc
" ,
Ġret urn
Ċ ĊĠĠĠ
iz ed
Ġd ist
l ed
Ġpro g
ir on
i ent
Ġs k
Ġre ad
Ġ ent
im es
Ġus ing
Ġpart ic
Ġp ub
d e
ar ly
Ġc a
Ġc ur
Ġle ad
Ġa ut
Ġre p
el s
Ġh ist
Ġf act
Ġt est
Ġl ife
Ġcomp le
Ġf am
ĠA s
iv id
i vers
Ġ very
Ġbe ing
Ġf un
Ġo wn
n ing
re ad
Ġs he
Ġf ind
od y
Ġunder stand
i qu
ĠW e
ĊĠĠĠĠĠĠĠĠ ĠĠĠĠĠĠĠ
Ġr ight
as es
c ent
or k
ĠA meric
ĠP ro
Ġres p
Ġpers on
Ġb ack
g g
Ġstud ents
en g
Ġde p
v ed
Ġb oth
at her
al ity
ĠA l
Ġfol low
Ġw rit
ĠF or
ĠThe y
Ġimport ant
ĠC on
Ġdo es
ĠH ow
Ġg l
Ġg row
Ġc ar
oc k
p ut
Ġm in
t le
ĠC om
T h
Ġm uch
d ition
Ġm ain
Ġcon f
v iron
i x
Ġc he
Ġapp ro
Ġm on
Ġbe fore
" "
ĠI f
p ar
Ġin formation
Ġs om
Ġg rou
v es
Ġs ol
Ġs ci
Ġe l
v ing
in al
Ġpro ble
Ġle vel
ion al
Ġstud y
Ġg reat
u p
an y
Ġen d
Ġa v
Ġf ood
Ġexper i
Ċ Ċ
ĠA n
n ce
i o
Ġst art
al e
Ġchild ren
Ġg ood
Ġm ight
Ġs chool
e g
Ġwith in
Ġcl ass
Ġof ten
Ġa round
us s
t ed
Ġc or
a ve
Ġm ade
er ing
Ġsa id
Ġsh ow
Ġp op
ver n
t o
Ġs ame
. ,
Ġp ract
u nd
ut e
Ġto o
an c
Ġp ower
Ġl it
Ġrese arch
Ġv is
i er
ak es
ra in
Ġb r
Ġdes ign
Ġo p
e c
re nt
Ġprov id
Ġact iv
Ġag ain
Ġpro t
Ġsm all
ĠA r
Ġall ow
Ġad v
Ġm em
oc ial
Ġm at
ro ss
it ions
Ġs erv
et s
Ġc are
iv ing
Ġp oss
ivid ual
p r
Ġl ess
od e
Ġexam ple
. âĢĿ
a ir
eth od
Ġd own
Ġt ake
= =
Ġcont in
ter s
Ġor gan
ro l
Ġd ay
t he
ire ct
iel d
in ce
Ġsupp ort
viron ment
it al
Ġc ult
om en
Ġqu est
Ġhum an
ĠY ou
a pp
Ġt reat
Ġn ow
in ed
is hed
Ġind ividual
Ġg u
a red
Ġst ate
ĠThe se
Ġcall ed
ĠI nd
l and
Ġe qu
v al
d ay
d er
ar ge
Ġpo int
erg y
Ġen g
p ro
## ##
Ġnum ber
t t
Ġ +
Ġc le
Ġre du
Ġbu ild
Ġs er
iz ation
Ġpl ay
Ġth ough
r al
v en
Ġpro f
Ġa w
Ġr is
n ame
i red
ul ation
Ġb ody
ĠB ut
Ġd id
Ġm ust
Ġpl an
ain s
en cy
Ġp os
Ġbe h
Ġo cc
ra ph
en ces
her s
Ġcon st
Ġa ff
Ġc our
Ġ est
âĢ Ķ
Ġin c
Ġp ot
ĠS e
act er
. "
our ces
Ġh im
Ġcomm on
ul l
or ies
at ely
Ġw ant
Ġm et
ere st
Ġp ar
en se
if y
e red
Ġ ident
Ġinclud ing
ater ial
a h
ru e
pt ion
Ġ ide
Ġdis e
) )
ur y
in ing
ivers ity
Ġth ree
Ġc ell
iv en
o h
m on
Ġp ass
in ation
Ġle t
Ġty p
( '
p y
ab ility
Ġed uc
Ġis s
id er
l ine
ang u
Ġe lect
our ce
ĠN ew
ĠW h
as h
ĠA d
id s
iv ely
st r
ate g
ĠE x
o x
l ess
Ġd on
ert ain
it ive
Ġs ocial
Ġgo vern
| |
pl es
r ies
Ġimp ro
con om
Ġch ar
e ad
Ġan al
Ġc reat
l ish
Ġm ethod
Ġinv ol
Ġknow n
b ers
Ġre al
a j
Ġd el
Th is
Ġcon n
ĠA nd
Ġ ess
in ess
ou n
p or
Ġwith out
Ġt em
Ġen vironment
cc ess
Ġch ang
Ġpub lic
Ġst ill
n er
Ġch ange
Ġsign ific
Ġbet ter
Ġpro m
Ġe as
ou se
Ġh and
t ain
i od
Ġan other
v iew
l u
ial ly
Ġm aterial
a pe
Ġre port
Ġpl ace
Ġlearn ing
Ġp ur
iv ed
Ġo pp
Ġint erest
ĠThe re
Ġpres ent
Ġd r
om s
p os
end s
Ġpro ject
u ro
S t
Ġb en
or n
Ġs it
are nt
Ġl ist
Ġb re
o ver
Ġs pe
Ġbel ie
Ġph ys
ro du
i or
Ġprodu ct
Ġfe el
Ġc ap
r ation
Ċ ĊĠĠĠĠĠĠĠ
ill s
o ad
ĠD e
c ing
is ion
as on
ent al
l i
b s
Ġl ight
Ġdevelop ment
Ġsy m
ĠHow ever
Ġm us
b e
Ġim m
Ġe le
ĠB y
con d
olog ical
ĠI s
eth ing
u g
ent ly
ord ing
an ces
a z
Ġbec ome
Ġen ergy
Ġop en
Ġme an
at ic
Ġfe w
h or
Ġca us
Ġke ep
, âĢĿ
ent ion
Ġother s
Ġb est
Ġf ac
w ays
Ġinclud e
Ġd irect
f rom
Ġ &
at s
Ġvar i
an k
i um
Ġvar ious
Ġn ame
Ġhist ory
Ġcre ate
' )
Ġto p
er y
' ]
ou th
( "
ĠE ng
o int
Ġha pp
Ġse ver
Ġle g
oc us
Ġper form
Ġh ome
Ġpro per
ag n
Ġst and
Ġe t
m an
ra y
Ġm ove
Ġam ong
ar c
Ġsom ething
Ġm ark
ect ed
t on
Ġl ook
Ġsa f
âĢ ĵ
Ġth ings
iqu e
Ġch all
if ied
Ġme as
Ġl angu
Ġf in
Ġty pe
at ch
am es
ĠR es
i ans
Ġl arge
at or
Ġs l
Ġth ink
Ġdes c
Ġa ir
s c
og n
at ural
Ġb as
Ġfun ction
er c
l ing
ot e
ĠP h
or ing
Ġagain st
im ate
Ġl aw
i ents
e xt
Ġgrou p
Ġo per
Ġme ans
he re
Ġre st
Ġcont rol
Ġde v
Ġhe re
og raph
p ath
Ġprov ide
' :
ur ther
ĠS h
Ġpartic ular
Ġan im
Ġh y
Ġsever al
Ġsignific ant
ĠAmeric an
em ber
Ġb us
ĠW hen
ĠâĢ ĺ
Ġb ased
ar th
Ġw omen
er al
Ġp ain
Ġare a
m e
/ /
s y
ro p
Ġt re
ard s
Ġfam ily
ot s
Ġpot ential
i ver
Ġd ue
Ġob ject
Ġen c
er r
res ent
Ġo ld
Ġcur rent
Ġm ult
Ġt ry
Ġ :
Ġprog ram
ort un
Ġen s
a per
Ġe conom
Ġbe g
Ġe arly
âĢ ľ
Ġf il
Ġl ab
Ġc al
I t
Ġ ve
Ġto get
Ġtoget her
Ġf ocus
Ġacc ess
s h
Ġl ast
Ġu nt
Ġan t
Ġ es
Ġben ef
[ '
ut ure
Ġn on
d ef
l ished
Ġ Q
Ġt urn
iss ion
Ġl im
Ġst ruct
Ġdise ase
b r
am p
s et
d itions
Ġor ig
pl oy
aj or
Ġf re
Ġ" ""
Ġris k
Ġs oci
Ġf ore
Ġsu ccess
Ġm aking
ĠT o
, "
Ġpr int
ic ation
Ġo pt
Ġav ail
Ġb i
o id
Ġc rit
or th
Ġposs ible
w ork
ĠUn iversity
g en
r ist
ress ion
Ġl ow
Ġs ay
ĠS o
Ġimp act
Ġke y
Ġc ertain
a ut
rib ut
Ġc r
s el
ĠP l
A s
Ġb o
Ġm il
ĉ ĉ
Ġper iod
Ġr un
m in
Ġsci ent
ĠC l
Ġ {
Ġm ill
age ment
Ġg r
Ġl and
id ence
c le
Ġf ri
Ġbl ood
Ġc ase
Ġ *
Ġ .
an e
Ġs ince
he m
id es
Ġspec ific
Ġloc al
Ġhe ad
Ġp ost
an n
Ġal ong
cl us
Ġval ue
Ġor der
em s
-------- --------
Ġocc ur
Ġcom e
ĠS p
Ġdisc uss
Ġgovern ment
Ġte xt
Ġfollow ing
ol ution
w w
ĠE n
Ġac ross
Ġcon c
Ġwh y
p re
ĠĠĠĠĠĠĠĠ ĠĠĠĠĠĠĠĠ
c er
ic le
Ġadd ition
led ge
Ġc ost
ra w
f or
Ġt imes
ĠC ol
m it
o f
" )
il ar
b y
is ed
end ing
Ġcomp ut
Ġare as
Ġprof ess
Ġh ig
h y
Ġunderstand ing
u se
al k
Ġc ause
Ġli k
Ġab le
Ġto ward
Ġproble m
Ġt er
Ġsystem s
Ġb ro
Ġass oci
Ġv iew
as ter
Ġm ajor
Ġcour se
u ment
: //
Ġmod el
y n
Ġel se
Ġpre vent
o le
Ġinv est
ĠI m
] ,
il ities
Ġar g
end ed
E R
Ġin tern
ab ly
Ġp ress
Ġ= =
Ġh ard
id d
Ġl ine
ight s
Ġto ol
oo ks
Ġrel ations
n ot
Ġspec ial
on es
os ed
Ġavail able
Ġcons ider
Ġspec ies
Ġcommun ity
Ġf uture
Ġcom b
Ġbeh av
Ġ Z
gg est
Ġapp lic
W hat
s w
Ġn atural
Ġpl ant
Ġcomple x
am s
Ġexperi ence
in a
c ul
Ġlangu age
th ough
Ġro le
Ġ x
Ġunt il
Ġre le
Ġresp ons
Ġse cond
ĠUn ited
Ġcount ry
" :
Ġm en
Ġpol it
it ing
f ace
Ġre ce
Ġyou ng
Ġwor ks
ar ing
ra g
ac y
ap s
Ġal ways
ĠW hat
ac es
ĠA t
ob al
ĠO r
as ing
as k
op e
Ġsu ggest
os p
Ġex ist
uro pe
d ata
Ġlevel s
Ġind ust
ic ult
Ġproble ms
iz ing
Ġp ut
Ġm ar
ain ed
Ġst ep
Ġto day
Ġtechn ology
Ġg iven
Ġstr ong
Ġlit tle
ĠG od
Ġs w
ĠâĢ Ķ
Ġc ir
Ġchar acter
Ġresult s
Ġr ange
e k
ist ic
ĠTh at
Ġtreat ment
Ġa ge
ore d
re en
Ġw ays
ys is
c ur
th s
at ors
Ġne cess
Ġob s
Ġv ol
Ġbus iness
le ment
Ġb ook
om m
sel ves
on t
Ġne xt
iv ity
Ġf ar
Ġper cent
Ġl arg
Ġdet erm
i k
Ġf low
ort s
Ġf our
Ġde m
it her
Ġinf lu
Ġrep resent
c o
W e
ag ing
th ing
Ġ $
or ld
Ġsim ilar
Ġeduc ation
a pt
Ġsh ort
Ġwor king
Ġ z
ab les
Ġchall eng
Ġess ential
Ġp ast
ĠA f
Ġsp ace
Ġ ill
Ġs ing
l ab
Ġam ount
Ġ **
Ġf ree
y m
et imes
at ures
s ide
Ġcon cept
ĠE urope
Ġhe art
at ory
Ġw ar
Ġv ir
ure d
Ġl ater
Ġb ir
ĠSt ates
Ġaut hor
Ġcon ditions
Ġs ays
du ct
Ġneed s
Ġwor ds
Ġn et
ĠCh rist
ĊĠĠĠĠĠĠĠĠĠĠĠĠĠĠĠĠ ĠĠĠ
Ġg ive
ĠW ith
Ġin it
ĠT e
et er
N A
ĠB e
un e
ic ro
I f
Ġm ov
a f
on se
Ġp aper
Ġk ind
ĠN one
v ious
Ġm ind
i res
Ġimpro ve
Ġpol ic
Ġe y
in c
u le
Ġres ources
Ġha ving
Ġsk ills
Ġf ield
Ġbeg in
Ġcons um
Ġp arent
Ġex pect
Ġcell s
Ġra d
Ġquest ion
ĠO ne
Ġte ac
Ġp red
Ġtra dition
Ġknow ledge
ib ility
` `
our s
Ġchang es
Ġapp ear
Ġj our
Ġiss ues
Ġest ab
le ction
Ġst ory
ĠC an
il i
Ġup on
Ġm ot
Ġconc ern
pec ially
Ġrequ ire
ĠO n
Ġrelations hip
Ġstr ateg
ar get
et ic
Ġdiff icult
Ġwhe ther
e e
Ġl og
en ing
Ġtyp es
Ġpr im
Ġs ens
Ġas k
us h
Ġtem per
Ġen ough
al es
Ġlik ely
Ġrec ord
ip le
ĠIn st
Ġus ually
g er
Ġd ays
n al
in king
Ġhist or
ap ter
Ġadd ress
ĠS ome
le t
im port
ĠA ll
ach ing
H ow
ch ie
Ġm akes
Ġopp ortun
ĠC ent
Ġaw ay
.. .
Ġn orm
Ġs um
Ġquest ions
Ġf urther
== ==
ict ion
Ġrese arc
s on
ru ction
one y
Ġprot ect
ĠU S
is ing
om es
ri ed
Ġe ver
ci ent
w are
Ġgo ing
ff ic
Ġd ig
Ġindividual s
Ġle ft
Ġp ath
Ġacc ount
ak en
o ot
ib r
u ed
Ġ i
Ġem ploy
ty pe
ific ation
Ġl ay
Ġhig her
A T
Ġgrow th
cl ass
Ġ ur
Ġb ig
Ġ <
T o
= '
Ġcent ury
ĠN ational
Ġcol lect
Ġf ull
ne y
Ġcount ries
Ġsu per
. _
am m
ĠAf ric
av es
Ġincre ase
Ġsit u
C h
Ġconn ect
r ans
pl ic
Ġf und
oo king
A n
Ġsu re
Ġst at
Ġsci ence
Ġne ver
Ġrec ogn
ere nce
Ġdesc rib
E S
Ġex c
Ġphys ical
Ġc y
ĠM ed
oh n
Ġs ide
ad d
re g
Ġb rain
Ġhow ever
ar l
Ġpl ants
ar r
ver se
Ġde ath
I N
ĠB l
Ġt erm
Ġun ique
Ġes pecially
Ġg round
Ġgrou ps
Ġab ove
Ġev ent
The re
Ġactiv ities
Ġle ast
Ġmain tain
Ġthrough out
Ġcont ain
#### ####
t est
m ost
a ult
ell ing
ĠF r
Ġpartic ip
ag ine
Ġem b
il t
Ġsub ject
Ġs ound
al se
Ġne ar
Ġa chie
Ġperson al
ed i
sy ch
ut ions
ĠS c
Ġmod ern
read y
ly ing
Ġaff ect
se qu
f ile
O N
Ġpop ulation
Ġd am
Ġstud ies
Ġne g
Ġre ally
f act
Ġr ather
pt oms
Ġbec ame
is on
Ġeffect s
Ġre ason
ru g
re ct
il s
a im
it es
m od
Ġcan cer
Ġqu ality
Ġrel ig
Ġlit er
Ġn ature
as c
Ġ `
Ġpract ice
re l
ill ed
Ġche m
Ġl oss
at ives
n ces
ĠB rit
Ġassoci ated
u nt
is es
Ġpat tern
at t
F or
Ġbuild ing
iss ue
Ġan sw
ro ll
Ġst re
Ġc ases
Ġpat ients
am ple
Ġdet ail
Ġs ize
Ġch o
Ġh old
Ġsome one
Ġ vers
Ġl ower
al f
Ġgener al
A S
Ġfact ors
ove red
en n
Ġmill ion
Ġcom es
Ġexpl ore
op y
A l
Ġme et
Ġal ready
Ġstud ent
ed s
Ġgl obal
ra ms
Ġd oc
" .
om an
Ġwor d
en e
o k
Ġsim ple
in ary
Ġreg ard
ri pt
Ġn ut
m b
I D
Ġint rodu
Ġc ity
ne w
Ġl iving
au gh
Ġsing le
Ġpro b
iqu es
Ġind ic
Ġab s
Ġmem bers
ĠL e
Ġw ind
ver age
Ġthem selves
Ġmaterial s
] )
t ime
Ġs ource
Ġtoward s
ip s
ĠW orld
Ġph ot
Ġprodu ction
Ġobs erv
iv al
Ġres pect
Ġd om
Ġe ither
Ġon ce
Ġse en
ra d
Ġde g
Ġ /
Ġ X
an ced
Ġthough t
Ġde ep
r ing
ĠG erm
ot t
un g
le ep
Ġ ut
c ol
in ter
A R
i ol
ĠW ar
Ġj ob
Ġacc ording
Ġp ay
Ġh ouse
le y
Ġresearc hers
Ġd one
or g
a e
Ġem ot
Ġinter act
Ġte am
her n
Ġf ile
en ed
Ġ ver
Ġc ut
ric t
ĠS he
ir d
en c
Ġrequ ired
ul es
Ġhelp s
Ġcre ated
Ġactiv ity
ad em
ear ch
' re
i pp
Ġanal ysis
Ġf ail
Ġproduct s
ĠEng lish
ĠJ ohn
ep end
ĠCom m
Ġas pect
h old
Ġeng ine
Ġint eg
Ġon line
Ġl ive
it ud
Ġf all
Ġn p
m y
Ġf ig
Ġsym ptoms
Ġmethod s
ful ly
Ġfre qu
Ġmed ical
Ġl ot
Ġmark et
Ġman agement
f er
g o
ot es
l er
Ġto t
Ġeff ic
Ġneed ed
ĠG o
oo se
Ġa ction
f l
Ġanim als
Ġpolit ical
Ġp ie
Ġcir c
Ġide a
iv il
pl ace
Ġs ent
ra nd
Ġev idence
Ġqu ick
Ġfl u
Ċ ĠĠĠĠ
ĠSt ud
Ġredu ce
Ġt arget
Ġnecess ary
ar ies
Ġbre ak
Ġsoci ety
Ġso ft
Ġsur face
Ġrec omm
Ġpop ular
ĠHe alth
Ġcol or
Ġens ure
Ġre d
ĠP r
w ay
Ġwrit ing
l oad
Ġright s
Ġsu n
Ġm ass
Ġact ually
Ġpart s
l t
ke y
Ġm ess
Ġse em
Ġval ues
Ġl ives
clus ion
Ġp ort
op h
s p
l ist
b on
z e
ĠM ay
Ġsom etimes
y le
Ġy et
Ġoff ic
ch an
ren g
Ġcl imate
ul ations
c ial
Ġent ire
al ing
Ġg e
Ġar r
Ġsh are
Ġincre ased
Ġr ate
Ġc ame
y stem
Ġappro ach
or ation
Ġresp onse
W hen
Ġfri ends
Ġcommun ities
Ġeffect ive
Ġs al
m a
Ġprovid es
Ġd est
Ġst ress
Ġenc ou
Ġcle ar
ĠA m
ĠA ss
ust om
Ġbel ow
er ous
Ġim age
Ġwho le
ĠWh ile
Ġdo ct
ĠG en
Ġn ational
Ġsub st
ag ed
ub lic
Ġdevelop ed
p ly
ol ic
Ġmean ing
Ġpress ure
Ġar ch
Ġhealth y
er ve
O R
end er
Ġex erc
ide red
I I
Ġserv ices
Ġev ents
ur ch
Ġcont ext
os is
Ġab ility
Ġ %
ac ks
Ġt aken
Ġincre asing
Ġcontin ue
c hes
Ġmus ic
Ġm oney
o res
le x
Ġ )
Ġav oid
Ġ _
Ġrel ated
ĠA b
tt p
ac c
Ġcomp on
Ġinst ead
Ġad ult
n ov
Ġem erg
ĠAmeric a
at ter
ist ance
Ġst ates
er ation
Ġt aking
w h
Ġcons idered
l ight
ct ions
ĠD r
Ġ |
Ġt ell
ĠM an
ĠI nt
ron t
o on
ĠIn tern
it ation
eng th
ĠG e
Ġm icro
im ately
E x
Ġcult ure
Ġallow s
g es
am ed
Ġan n
um e
Ġre view
Ġart icle
Ġm ach
Ġcan not
Ġthe ra
ĠS ci
Ġchalleng es
Ġs ite
Ġf ive
Ġpr iv
pl ay
Ġtra ining
h ing
Ġeconom ic
Ġwh ite
um p
Ġread ing
ĠC al
p art
b ased
Ġb al
Ġtechn iques
Ġche ck
Ġenvironment al
Ġd rug
Ġpos ition
Ġtool s
ĠA fter
ir m
Ġm or
ĠE m
a i
Ġbehav ior
Ġtradition al
C on
ĠCon t
ord er
Ġex cept
Ġh arm
ut es
in it
rib ute
Ġcl os
ar i
Ġdo ing
ac ed
h ib
Ġass ess
he t
im ent
Ġevery one
Ġsk in
idd le
am in
Ġcle an
c ome
li ke
Ġcomp et
Ġits elf
ĠS outh
Ġcomput er
av ing
Ġbe gan
o es
Ġpub lished
Ġs ense
e ed
ĠA pp
ĠE arth
Ġst reng
uc k
p ose
Ġre act
B ut
ac hes
e y
es c
op s
ĠN orth
p ri
p id
m ber
Ġwe ek
Ġl ove
ast ic
it or
Ġcrit ical
i et
y pe
Ġrem ain
Ġwe ight
Ġde mon
f ig
g round
k now
Ġl a
Ġcon dition
d om
Ġmeas ure
ĠH ist
em pt
Ġbenef its
e le
Ġoff er
Ġcont ent
ail y
Ġt rue
Ġac cept
Ġmat ter
Ġbl ack
Ġse par
Ġd raw
Ġbr ing
Ġre v
Ġtoo k
Ġmed ic
is c
Ġpro te
j oy
Ġcult ural
Ġs at
Ġc at
Ġfe ed
ĠA ct
Ġexperi ences
Ġinst ance
Ġreg ular
ĠA ust
con t
Ġparent s
Ġc ru
Ġg reen
Ġh ab
Ġter ms
it ary
b l
ist ics
p ite
arg s
Ġcon duct
ra ft
Ġo il
Ġsu st
Ġimp lement
Ġexp ress
y l
Ġident ify
Ġca pt
= "
Ġpre vious
iel ds
Ġatt ention
av or
b ack
. )
Ġstruct ure
ve re
E N
ic les
e qu
Y ou
Ġst ories
ol l
Ġet c
it ution
Ġd at
or ks
Ġprodu ce
in f
te xt
ĠG u
h ood
Ġreg ion
N ow
row n
Ġf ish
he ad
Ġdemon str
Ġmult iple
Ġse lect
W h
Ġmon ths
O ne
if t
g ing
art ment
ern ame
Ġse x
Ġprovid ed
is ter
e b
Ġdi et
Ġf ace
al u
Ġfor ms
Ġpract ices
Ġtot al
ĠR ep
I S
Ġmin im
Ġun it
Ġdesign ed
Ġsu ff
u el
Ġcomp any
Ġele ments
Ġindust ry
is ions
Ġpos itive
r or
Ġcreat ing
Ġcons ist
id ed
ĠH is
Ġh ours
č Ċ
Ġv ide
b o
Ġref lect
err or
Ġal most
Ġshow s
Ġh alf
ĠS u
Ġyour self
Ġa im
Ġp sych
ow s
Ġhe av
o ber
Ġb ar
Ġserv ice
Ġparticular ly
Ã ©
ens ive
Ġ __
d ate
Ġf at
Ġdoes n
Ġanal y
Ġso il
Ġschool s
Ġrec ent
Ġcl aim
Ġd og
um n
Ġf arm
Ġcont act
r ight
Ġe th
Ġinvol ved
Ġprog rams
Ġth ing
n ers
I m
Ġcont ribut
Ġtemper ature
i ke
el t
Ġme chan
ĠM ore
ir it
Ġs ources
ur s
T rue
Ġsim ply
ĠY our
[ "
it le
th on
Ġcomm it
r ast
Ġl ink
es e
he l
Ġorig inal
ar ily
Ġcl ose
Ġs leep
Ġde b
m ing
a ff
cc ording
r im
Ġeas y
f il
i ation
A N
Ġg as
Ġ er
st er
Ġext ra
Ġen joy
t ies
Ġhe at
Ġst e
Ġchem ical
ĠP e
Ġide as
Ġm ax
c hed
Ġsp read
ra ge
Ġen h
Ġtra vel
ĠM ar
âĢ ¦
č ĊĠĠĠĠĠĠĠ
ri ption
re m
r s
Ġsur v
ri or
o in
Ġbu ilt
ĠN o
Ġaw are
or por
Ġstart ed
Ġl ed
Ġiss ue
Ġhistor ical
ve y
Ġp ict
ĠD ep
Ġlong er
Ġf em
ĠA g
Ġperform ance
Ġgreat er
Ġst op
ĠJ ew
Ġwrit ten
Ġout side
Ġin j
Ġsur round
Ġmod els
ĠP ar
por ary
s u
ĠY ork
oun ter
rib ution
en ced
ĠM e
ens ion
Ġa ud
es tern
n um
Ġw ild
Ġcomp an
Ġl ands
Ġbelie ve
Ġpoint s
f ect
r ig
v ant
] .
it ute
ograph y
Ġdi agn
Ġfin anc
Ġde cl
Ġbe aut
Ġcor rect
ĠSt ate
a it
Ġs low
Ġmove ment
Ġf ire
Ġbeh ind
Ġprog ress
cur ity
Ġth reat
Ġass ert
Ġm ental
Ġlead ing
y ond
I T
Ġmed ia
erv ation
ĠRes earch
Ġb ooks
ov ed
Ġscient ists
Ġcommun ication
Ġc ode
Ġm om
Ġon es
op t
ĠC ons
Ġus er
Ġrem ember
c he
Ġf ram
iz ations
ron ic
Ġstand ard
Ġv iol
et ers
ĠC o
min ist
Ġus es
Ġev alu
ĠCan ad
il ies
Ġc ustom
Ġad apt
S o
Ġbro ad
Ġt akes
in ating
ap an
Ġal tern
Ġf ru
ĠBrit ish
iss ions
Ġcol le
Ġdevelop ing
w here
ric ult
r ate
re w
stand ing
b an
Ġe c
us ername
Ġsaf ety
Ġst ay
Ġcaus ed
ĊĠĠĠĠĠĠĠĠĠĠĠĠĠĠĠĠ ĠĠĠĠĠĠĠĠ
P ro
Ġnorm al
Ġd aily
in ally
ac hed
ĠL et
o or
s ize
olog ies
Ġappro pri
Ġw ond
Ġwrit e
Ġnum bers
Ġget ting
ad es
Ġgrow ing
re ci
l s
Ġins ide
Ġhum ans
ĠC ar
rough t
Ġs ix
d d
Ġinclud es
Ġimport ance
am b
Ġcaus es
u fact
Ġpolic y
g ed
Ġsm o
Ġ >
Ġbas ic
Ġansw er
ĠU s
Ġlead ers
Ġsaf e
Ġin nov
ĠN e
Ġcomple te
ĠU nder
ch ol
Ġacc ur
Ġre ve
Ġins p
ĠP re
Ġsust ain
w ord
Ġprim ary
Ġfe atures
Ġpre p
b ol
Ġin put
Ġl ate
Ġ --
E D
am ples
Ġl ooking
Ġp age
Ġwe bs
Ġt alk
Ġeff orts
ĠP er
Ġex act
um b
I C
k en
ut h
tt ps
Ġt ax
Ġachie ve
am ent
ĠM any
ial s
du c
p es
Ġs qu
f ort
res h
Ġsh ap
Ġgu id
Ġopportun ities
Ġs cre
U p
Ġth inking
Ġsh ape
t ings
cl es
Ġover all
Ġd iv
Ġinvest ig
Ġind epend
at ively
Ġvis it
Ġa verage
Ġc ross
Ġst ru
ĠF l
Ġcomp ared
Ġval u
Ġdam age
ĠS chool
Ġsh own
Ġc amp
Ġe arl
' ll
Ġapp l
Ġdec ision
h aps
Ġc it
ww w
ro om
ers on
Ġstrateg ies
ĠQ u
Ġbe yond
ren ch
ound s
Ġrequ ires
itud e
Ġfor ce
Ġb acter
Ġpattern s
Ġprocess es
Ġr out
Ġw id
Ġk ids
Ġnet work
Ġpol l
Ġf ul
ĠJ apan
Ġser ies
B y
g ar
ĠInd ia
ter m
Ġw arm
Ġl o
Ġb ill
ed eral
ous ly
Ġl ack
Ġscient ific
res p
Ġelect ric
Ġqu ite
u ments
Ġto wn
Ġe arth
Ġm agn
Ġprob ably
ĠS im
l og
Ġthe ory
ci ples
Ġatt empt
Ġfood s
Ġquick ly
Ġintern ational
Ġco ver
pp er
Ġrequ est
Ġevery thing
Ġcar bon
r ated
Ġcol lab
ĠTh rough
Ġc ool
Ġp ack
Ġout put
Ġin form
in ct
S T
ĠD es
re am
as ons
al y
Ġcol on
Ġg ame
Ġe at
m et
č ĊĠĠĠ
app end
cre t
hen s
Ġdoc ument
ab et
Ġpred ict
m ore
A C
Ġvis ual
Ġpre c
od ay
Ġapp reci
Ġt ri
Ġfore st
is ms
Ġeas ily
ri e
p oint
ĠR et
Ġag o
vent ion
Ġpat ient
Ġb ase
i ency
Ġanim al
le ase
Ġn ight
ell ow
Ġl if
ir ing
Ġh ost
Ġfam ilies
Ġpers pect
Ġ ir
Ġaddition al
Ġvalu able
ill i
Ġs ect
Ġvari ety
Ġteac hers
id ge
Ġgener ally
Ġse arch
Ġw ood
Ġc ivil
Ġdig ital
Ġpo or
Ġg ain
Ġc ou
Ġve get
Ġt ree
il os
j ust
ol es
ĠSci ence
ĠRe g
Ġdiffere nce
er ate
Ġac adem
ce ed
Ġsoft ware
al king
Ġser ious
Ġinflu ence
Ġan cient
Ġcru cial
ĠAust ral
Ġl ines
u ge
A L
Ġbec omes
Ġd ou
ess ion
ver t
m ission
Ġact ive
Ġreport ed
ĠC O
iz es
Ġfinanc ial
Ġman ufact
ig en
l im
in ks
val ue
" ]
Ġsitu ation
it ch
u ild
os ing
Ġlarg er
ĠM in
Ġte aching
Ġf it
an a
ou d
enc ies
ie f
Ġadd ed
ĠAr t
od es
ĠP res
yn am
Ġopt im
Ġb it
Ġpr in
Ġcompan ies
Ġhy d
rou p
Ġs ection
Ġis n
od ies
Ġinclud ed
h a
Ġestab lished
Ġt able
Ġapplic ations
Ġcal cul
all s
R E
it able
Ġprovid ing
b or
Ġaspect s
ĠK ing
ur ies
Ġo x
Ġt end
Ġim ages
r ial
Ġrem ains
Ġs il
Ġpower ful
an cy
w ise
pr int
uc le
re t
ĠCh ina
Ġp rior
I V
ĠP art
Ġapplic ation
O n
Ġprodu ced
Ġfe et
ul ate
ĠEurope an
il le
Ġb ur
Ġspe ak
Ġh ands
Ġfri end
Ġf ost
ĠCom p
Ġse curity
Ġconf lic
ibr ary
ĠT ra
cept ion
Ġ ,
m ar
ĊĠĠĠĠĠĠĠĠĠĠĠĠĠĠĠĠ ĠĠĠĠĠĠĠĠĠĠĠĠĠĠĠĠ
ĠF rom
Ġstep s
Ġh or
Ġg ard
em porary
ĠJ ust
Ġcon cent
an ks
l ands
Ġb ad
Ġth us
Ġm ention
ph as
Ġu lt
ĠC ount
ĠD o
Ġe p
Ġtrans port
Ġso on
Ġdirect ly
Ġrelig ious
c ks
Ġth ous
Ġey e
Ġqu ant
c are
en ge
"" "
m ed
Ġvir us
Ġsp irit
ĠR uss
r ror
b it
Ġs n
in o
Ġimm edi
ĊĠĠĠĠĠĠĠĠĠĠĠĠĠĠĠĠ ĠĠĠĠĠĠĠ
it ect
Ġan g
Ġd ang
Ġvide o
ar v
u ff
re qu
e v
Ġdeterm ine
r an
Ġestab lish
ĠN ot
Ġappropri ate
Ġ Â
m at
y ing
Ċ ĉ
Ġrelationship s
Ġa st
Ġbelie f
Ġrespons ible
Ġproject s
ĠP ol
ĠM y
Ġoff ers
Ġg ot
i ence
Ġn amed
Ġf asc
Ġest im
Ġwas te
Ġdise ases
Ġgra du
Ġcon vers
Ġr ules
Ġpl aces
Ġf oot
Ġc ele
if ically
Ġexp os
Ġo s
Ġm other
Ġh ot
Ġdev ices
Ġpro pos
Ġb ab
Ġdi verse
Ġmil itary
Ġref er
Ġag ree
Ġexerc ise
ĠD is
Ġpro ced
ass ert
Ġinc orpor
Ġexpect ed
Ġ @
ĠE d
Ġtry ing
Ġinst all
Ġro ad
Ġs us
Ġr ates
Ġobject s
Ġcomple t
Ġf inal
h ors
ord ers
Ġc red
Ġde cre
Ġhe ld
in ated
Ġn av
d ict
Ġm ix
Ġask ed
Ġatt ack
Ġexpl oring
Ġopt ions
Ġtre es
Ġinter pre
Ġse ems
ec ause
Ġc ard
ill ing
Ġu nd
Ġsuccess ful
Ġleg al
Ġse a
Ġstru gg
Ġr ich
ĠE duc
o ff
Ġtyp ically
ĠF rench
Ġf ront
Ġm is
Ġlim ited
hem at
com p
E T
Ġcompon ents
if ul
ĠG l
Ġn ation
d ing
Ġjour ney
Ġinvol ves
Ġpur pose
us ed
w rit
Ġwh ose
ĠC our
Ġv acc
Ġhigh ly
Ġro b
ell ig
Ġb reat
Ġf avor
Ġj ud
r ong
Ġs old
l ife
R es
in st
in ate
Ġth ird
Ġuse ful
Ġcent ral
Ġra ise
Ġper fect
d ir
Ġre ach
ist ry
Ġthere fore
A t
Ġst ri
Ġcl in
Ġdev ice
form at
Ġob tain
ĠJ u
Ġexam ples
il es
N one
ĠAl though
om ing
Ġlearn ed
ĠAfric an
Ġmin utes
ĠH er
o at
um an
Ġgo al
d f
ip ment
par am
at form
Ġlab or
Ġey es
Ġd ry
Ġcost s
Ġmem ory
Ġproper ty
Ġcontin u
ĠM od
e ks
E rror
Ġf air
Ġv it
ĠF irst
Ġl oad
w ater
ĠS m
St ep
ĠO f
Ġw ent
Ġtrans form
Ġdem and
==== ====
ĠAfric a
Ġl ength
ch ange
o very
S ection
Ġse vere
Ġneg ative
Ġch oose
ra p
Ġcommun ic
A nd
ĠM ost
ĠInd ian
Ġmon th
Ġch apter
as ks
Ġany thing
Ġresp ond
ĠA c
at tle
Ġf ast
Ġra pid
ash ing
c ape
Ġprot ection
' ve
Ġprofess ional
i ot
n a
Ġspe ed
Ġse qu
use um
ĠO ther
Ġal though
ur g
Ġpar am
ĠChrist ian
Ġc ateg
Ġexpl ain
Ġp an
Ċ ĉĉ
Ġstat us
Ġv ia
Ġf a
Ġno vel
l ation
Ġsol ution
ce an
m l
ĠJ an
Ġf ight
ĠN ow
Ġm ount
Ġsignificant ly
oc ks
Ġsym bol
ffic ient
Ġcap ital
e ch
Ġsupp ly
Ġcont ribute
ĠR em
Ġc am
Ġdiffere nces
Ġcap ac
Ġbehav i
Ġregard ing
und red
Ġvers ion
ag er
Ġcomm and
Ġro om
Ġl ost
com ment
o e
Ġcont ains
ĠTe chn
st ate
ĠV al
Ġhab it
Ġadult s
Ġw ide
Ġsh ared
Ġaut om
Ġadv ant
C l
in y
Ġd ark
ĠM us
Ġb ound
Ġbl ock
i us
y ear
Ġcon sequ
Ġcit iz
r ition
rodu ction
om et
Ġbegin ning
u k
Ġprin ciples
u ary
Ġwork ers
Ġb rought
Ġh ttp
Ġ ing
Ġem phas
Ġencou rag
Ġstruct ures
ĠA ug
ĠJ es
Ġus ers
Ġbal ance
Ġcar ry
Ġst age
Ġd im
Ġtr ust
ĠT rue
ĠO ver
ci ous
it er
Ġve h
__ __
w ide
Ġtest s
Ġact ions
ĠCent er
Ġse ason
Ġpriv ate
Ġex ec
Ġdoct or
ere nces
ĠG ree
Ġse c
se ct
i ers
Ġfor ces
Ġapp e
Ġrece ived
Ġliter ature
Ġdisc overed
w ith
if orn
Ġnew s
g n
act ers
Ġag ricult
Ġacc om
Ġm ag
os ition
Ġt im
Ġne igh
Ġgra ph
ot ing
Ġac id
Ġlim it
Ġdef in
Ġcontin ued
id ents
Ġprote in
Ġh on
Ġad minist
Ġsa w
H e
un ction
Ġdid n
Ġinterest ing
Ġearl ier
i os
Ġbir th
Ġd ate
ĠW est
Ġd er
Ġfun ctions
ĠM on
Ġsol ar
Ġdisc over
Ġloc ation
Ġf ear
ĠGerm an
ĠO ur
oc ol
E C
ĠT w
Ġvir t
Ġfor ward
un ch
Ġf ields
U n
Ġlaw s
ud d
E M
Ġre asons
Ġle aves
Ġcent er
ĠI I
Ġmess age
abet es
Ġinf ection
Ġ Ċ
z z
ef ore
Ġorgan izations
est ic
Ġc ra
Ġit ems
Ġbenef it
`` `
ĠH ere
Ġte ach
Ġtest ing
tern al
Ġrecomm end
augh t
Ġm ole
R e
( ):
Ġtra de
Ġmeas ures
Ġwe eks
st art
om y
k y
Ġem p
ĠE ven
Ġteac her
iforn ia
Ġb ra
Ġmach ine
Ġcomp re
Ġv o
Ġdep end
C om
Ġthera py
Ġro ot
Ġres ource
Ġconst ruct
a id
ĠG reat
## #
Ġeffic ient
ab ilities
ĠHist ory
s er
__ (
Ġw on
Ġsmall er
ĠDe velop
Ġpro p
b ook
ĠE ach
ar ian
Ġcont roll
v otes
Ġt en
ul a
ĠInst itute
Ġchall enge
ĠCh ild
Ġapp ly
ĠA nt
ough t
A r
pl it
pr il
Ġto ld
Ġc opy
Ġe gg
Ġsh all
Ġopportun ity
Ġill ust
dition ally
ĠT rans
Ġinit ial
i ra
on y
Ġess ay
Ġde al
Ġrece ive
con fig
Ġd ynam
anc ing
Ġpie ce
Ġe ating
ro te
Ġaut hors
b re
Ċ Ġ
qu e
Ġloc ated
Ġv ict
Ġser ve
Ġph ilos
Ġth r
Ġass ign
Ġequ ipment
Ġ \
Ġdeg ree
' '
Ġwebs ite
ĠIntern ational
Up votes
ĠDep artment
at ur
Ġh undred
ap ers
Ġnum erous
W ith
Ġh ope
Ġut il
ĠComm un
ĠS ystem
our nal
m ax
Ġexist ing
Ġdis play
Ġn ames
c oh
Ġconst ant
ĠS w
ire ction
âĢ ¢
Ġa x
Ġdetail s
Ġre pl
out hern
Ġjour nal
ing u
######## ########
Ġmom ent
air s
Ġproper ties
Ġconcept s
Ġinit i
g ram
ul ated
Ġcol lection
ĠThe ir
Ġt ask
ĠO ct
Ġl en
ines e
Ġsol utions
Ġra re
ĠL ear
Ġconcern s
know n
Ġfe ature
Ġarch itect
Ġeff ort
ĠS erv
Ġexact ly
Ġchar acters
Ġal g
A P
Ġdescrib ed
ur t
ĠThe n
Ġexp and
Ġwe b
Ġnot hing
Ġsit es
e per
ro gen
oc r
ens ity
Ġdec isions
Ġexpos ure
ĠJes us
Ġsc en
ind ex
ĠCal ifornia
Ġconn ection
Ġm iddle
Ġb urn
Ġb ott
Ġg ives
Ġde ad
Ġn arr
ĠD uring
Ġsa ve
igen ous
Ġaff ected
Ġconst ruction
The se
ĠM arch
Ġorgan ization
Ġident ity
ĠE l
A D
Ġ ice
Ġinst ru
Ġallow ing
R O
Ġcont emporary
ĠAmeric ans
ĊĠĠĠĠ Ġ
Ġn ucle
est s
Ġallow ed
el ines
us ion
Ġne arly
Ġm id
Ġfollow ed
ib ly
n ed
Ġplan et
Ġac qu
ur ation
Ġrec ently
ĠW ell
Ġhim self
Ġm ut
Ġh ous
Ġmax im
Ġle ave
Ġgo es
w orks
ur b
Ġr ule
Ġbacter ia
Ġm ig
Ġpl atform
Ġs we
Ġold er
ort hern
M E
Ġplan ning
Ġwe ather
Ġgu ide
Ġgo als
ĠR ed
x i
com es
Ġbeaut iful
Ġredu ced
er o
Ġm iss
Ġd ed
or age
ĠA ccording
p an
Ġf resh
Ġconnect ions
Ġtechn ologies
Ġsc ale
Wh ile
v is
: **
it is
Ġback ground
ĠH ol
Ġinf ect
Ġh ol
o ch
Ġstand ards
Ġp ow
m osp
Ġf uel
re es
og le
mod el
l oc
Ġsu gar
g y
Ġhe ard
Ġb ox
t es
Ġf ib
Ġb orn
il it
Ġsurround ing
al ed
ĠR iver
Ġval id
Ġb ul
Ġlarg est
ĠEng land
Ġst yle
ul um
Ġnav ig
og en
Ġqu al
plic ations
Ġdi vers
ĠCanad a
con s
Ġrele vant
Ġc ore
ag s
se e
Ġcele br
Ġcol d
Ġper haps
Ġfasc inating
ra el
Ġhy p
Ġal one
Ġd en
Ġsum mer
ĠJ une
ĠF urther
for ce
Ġro ck
ĠIn ter
re me
Ġeffect ively
ili ar
ĠO nce
Ġmem ber
Ġ }
Ġbas is
Ġappro x
Ġconf ig
Ġpe ace
Ġg ender
Ġappl ied
Ġcomplet ely
Ġequ al
I nt
ru pt
Ġst ra
Ġdec ided
ĠI S
ĠSe pt
ff ect
ed om
mit ted
Ġele ment
Ġwor th
Ġt ou
ast e
Ġco ast
Ġdist ance
ĠAug ust
Ġset ting
c an
ĠK e
Ġpolic ies
Ġprom ote
ĠAss oci
Ġdef ault
Ġw rong
m p
ĠP ress
Ġcol l
m en
ro s
Ġpur ch
oun c
Ġinvol ve
Ġlay er
at us
Ġacadem ic
Ġdist inct
Ġpr inc
ar a
ĠU se
Ġte eth
Ġc op
Ġfind ings
Ġp y
Ġn orth
h t
Ġf ather
Ġt ru
---------------- ----------------
ci pl
Ġdet ect
id ing
Ġh osp
Ġful ly
ed ia
inf o
us er
ĠD av
Ġr ise
Ġeduc ational
ĠCh inese
Ġant i
ic o
Ġsur g
er a
Ġc and
s ub
ĠT oday
C O
Ġem ail
Ġf ix
Ġrun ning
Ġnot e
Ġfig ure
ĠEduc ation
Ġcurrent ly
r ical
âĢĿ .
ĠD ay
con n
Ġmat hemat
Ġeconom y
Ġm ath
Ġsign s
ĠW illi
Ġemot ional
e es
ĠA pril
coh ol
Ġw atch
ic a
Ġre pe
iz er
l am
it utions
Ġs on
Ġinst ruct
he st
Ġb odies
Ġim ag
Ġent er
Ġmov ing
ĠM c
Ġprofess ion
Ġm ap
Ġm ob
Ġris ks
Ġp et
Ġg iving
Ġwant ed
Ġwork ed
Ġs chol
Ġoccur s
Ġw rote
( [
l en
A M
a ul
ĠCon st
Ġj oint
f ord
Ġmil es
Ġins ights
Ġcom fort
Ġl ived
Ġev olution
Ġm aster
ĠRe ad
t a
Ġw oman
Ġcom ing
Ġaltern ative
Ġc ry
Ġspec ifically
I ON
Ġass um
ĠP ark
Ġre ality
Ġor d
h ab
Ġpict ure
ĠF alse
Ġext rem
Ġpass ed
idd en
I s
ra b
ĠA re
ĠJu ly
Ġfact or
Ġcho ice
ĠS oci
Ġl at
Ġcapac ity
ĠGo vern
I L
ashing ton
pp ed
Ġocc up
ri ef
Ġk ing
y d
Ġc ities
p ing
Ġg ir
ĠC ur
Ġs outh
Ġint ellig
n et
ĠC ity
Ġcomp ar
t rans
ĠP at
E L
Ġad just
Ġfind ing
Ġtre nd
Ġcont ract
r un
Ġp hen
Ġgen etic
Ġind ex
Ġim agine
Ġsur pr
ond on
ĠCh urch
ic ip
c raft
Ġdist ribution
l in
a ur
ĠPe ople
ĠUnder standing
Ġra nd
Ġg old
am a
Ġfa ith
Ġtop ic
rel ated
en ame
Ġass ist
Ġwe ak
L et
Ġcitiz ens
b al
Ġdi ed
os es
Ġsoci et
F alse
ĠT est
Ġchang ed
Ġfam ous
Ġst ore
ĠD on
Ġf ederal
Ġg ames
** :
n orm
Ġbir ds
h am
ang ing
) ;
ward s
m ark
Ġoper ations
Ġill ness
Ġfem ale
ĠH igh
bo ard
s es
ĠPres ident
el come
t ical
ch ing
Ġref ers
i as
ĠIs rael
Ġnut ri
a res
Ġres istance
Ġact ual
Ġcommon ly
ĠC ong
ĠJ ournal
ĠCh apter
ar ray
Ġhapp ens
Ġcomm erc
Ġeas ier
Ġreg ions
Ġsex ual
c ast
' .
ĠBl ack
ĠCh ar
Ġrequire ments
ent y
Ġpl aced
Ġbec oming
Ġde eper
or ith
r id
Ġstreng th
à ¤
Ġat mosp
Ġfor mer
ri x
go ing
ce mber
Ġex hib
Ġhelp ing
Ġexper iment
Ġr at
com m
ĠS ince
xi ety
Ġpres ence
an ish
Ġs ample
ruct ure
Ġhapp en
ify ing
Ġpr ice
Ġtra ck
z ing
Ġpre gn
Ġpop ulations
Ġev ol
Ġany one
d o
Ġthous ands
Ġex cess
Ġident ified
Ġfeel ing
Ġform ed
ĠC he
Ġmon it
Ġv ital
Ġstart ing
Ġdrug s
Ġs em
Ġun ivers
Ġw inter
Ġchang ing
Ġv ary
Ġshow ed
Ġur ban
a ign
Ġredu cing
Ġro t
Ġsh aring
Ġdi abetes
Ġpre par
c all
Ġrem ove
Ġexp ression
ĠUn ion
Ġfru it
Ġdef ined
ĠM ex
om b
ĠL ab
Ġfore ign
Ġc ounter
at ers
Ġop in
ĠS pec
Ġget s
ĠE ast
Ġtop ics
Ġsol id
Ġlab el
Ġrand om
S h
d is
ĠT r
Ġatt ract
el ine
ĠL aw
Ġd irection
Ġun f
Ġadv anced
Ġhealth care
Ġevent ually
Ġt asks
Ġm al
ĠV ir
ĠD NA
f ield
Ġlet ter
g s
Ġm outh
Ġ[ ]
ac he
iven ess
ĠCount y
S e
et ime
Ġconn ected
Ġcompre hens
Ġto x
Ġw a
g l
ounc il
Ġfeel ings
ro y
Ġsitu ations
h ouse
Ġb all
Ġpl ans
Ġv ill
Ġadv ance
se mb
ove mber
Ġbo ard
Ġf illed
n p
ĠJew ish
Ġmention ed
Ġha ir
Ġimm une
Ġst im
Ġread ers
ĠAl so
Ġread y
Ġresult ing
Ġp en
Ġun c
Ġaware ness
Ġconsum ption
i able
t rain
ĠP y
Ġpart ners
Ġless ons
Ġh op
Ġgl ass
or b
Ġdes pite
Ġb ond
l ay
ĠW ashington
Ġcaus ing
Ġs ort
ight ly
P A
Ġpie ces
ĠĠĠĠ Ġ
Ġtra in
Ġcon clusion
Ġsepar ate
ĠSept ember
S ome
ĠJan uary
ĠOct ober
hip s
Ġ ign
ĠAd ditionally
Ġs ac
Ġl ib
c king
ĠCon f
ĠB i
How ever
Ġbl ue
Ġte le
Ġb ed
Ġplay ing
am ental
en cing
Ġthough ts
Ġch ance
ĠR oman
et her
Ġsp ect
Ġexper im
Ġd ial
at in
Ġe ight
Ġtechn ique
ies t
Ġpre f
p ed
Ġgard en
Ġinterpre t
ro ps
pect ed
Ġbelie ved
Ġappro aches
Ġexperi enced
ub e
d own
Ġinf l
ĠA ut
Ġp ick
Ġ id
H E
Ġvis ion
Ġincre ases
ĠD ef
ĠAr ch
d at
ĠB o
Ġh om
U S
Ġg ave
A d
Ġst aff
Ġro w
r ant
Ġexper t
ric k
Ġdep ending
Ġsustain able
Ġman age
op hy
Ġmedic ine
Ġ error
O T
Ġbab y
Ġencou rage
A ll
Ġ+ =
Ġcult ures
ĠGerm any
rom e
Ġbel ong
Ġcom pl
in put
Ġd ivid
Ġm ission
ĠL ondon
Ġpresent ed
Ġout comes
O S
ĠF eb
Ġbill ion
Ġn ative
Ġprofess or
i ance
Ġobserv ed
Ġch urch
Ġcont rast
Ġfrequ ently
Ġappear s
Ġc ogn
Ġrel atively
ĠR el
P S
Ġinc ome
Ġclass es
Ġ{ }
Ġw alk
ra ction
ograph ic
ars er
l or
Ġbusiness es
Ġeng age
Ġcol umn
resp ond
Ġwond er
Ġmajor ity
or ch
Ġcon v
Ġem issions
Ġ ...
h and
f e
Ġpl ays
Ġsuggest s
res ents
Ġtr uth
g ra
Ġbu y
Ġdiscuss ion
Ġhelp ed
as ion
Ġlangu ages
ĠPro f
Ġfil es
al t
ur l
rie ved
Ġon to
A fter
al le
Ġcirc um
Ġrecord s
P h
te red
Ġad vent
ur ance
H ere
Ġheav y
Ġf elt
r is
Ġref erence
Ġt issue
ĠTh us
Ġco ord
Ġsound s
Ġcre ation
c ap
ress ive
č ĊĠĠĠĠĠĠĠĠĠĠĠ
ĠB ar
Ġprocess ing
ant ic
Ġa p
n o
Ġoff ice
or ge
Ġtrans fer
Ġintern al
het ic
Ġpl astic
Ġhe ight
gy pt
Ġcharacter istics
ĠAustral ia
ĠC or
y gen
f low
ab ase
Ġo ption
ĠS om
Ġform at
Ġf ert
Ġr iver
ĠEn vironment
U T
Ġimpro ved
ĠS ur
Ġreport s
qu al
c ular
Ġincreasing ly
c ode
Ġ â
u it
le vel
c ount
Ġpre fer
ĠW estern
Ġturn ed
ĠW ater
ann el
ĠDe cember
arn ing
Ġmot iv
ot hes
ĠFr ance
Ġdis order
ĠB ecause
Ġli qu
ĠS an
Ġimmedi ately
Ġs av
ic on
Ġal cohol
Ġnot es
Ġens uring
ĠGen eral
Ġdis orders
Ġm ist
ribut ed
ĠU K
Ġengine ering
Ġmus cle
act ion
Ġclin ical
Ġrep resents
Ġclass room
v ision
Ġm ale
ic ed
Ġindust rial
Ġgen e
ram e
Ġra ce
Ġconflic t
Ġinst itutions
d ed
ĠS ol
re st
Ġcol ors
p at
ĠMed ic
Ġgener ation
h ttps
Ġ iron
Ġv ul
Ġalg orith
d es
Ġdivers ity
Ġan xiety
Ġinterest s
Ġenh ance
Ġd ive
Ġparticip ants
Ġel if
ĠH ouse
ĠEx pl
ic ense
ĠSoci ety
Ġj o
ro ad
il arly
Ġrele ase
ru ary
Ġcolle ge
be ing
Ġtrans l
Ġh omes
ĠD ata
Ġcommerc ial
Ġtr ig
pl ot
re f
ens ions
Ġmet al
Ġmaintain ing
Ġant ib
ĠD i
Ġ- >
Ġapprox imately
os ystem
olog ists
Ġw in
Ġintrodu ced
IN G
r ations
ĠUn it
ĠA ng
Ġpart y
Ġlead s
Ġel im
ail s
ĠInst ead
Ġviol ence
Ġrelig ion
Ġchalleng ing
Ġfac ilit
Ġrem ov
Â °
ob ject
Ġing red
ĠN ovember
i xt
as et
Ġconsequ ences
Ġv ast
az ing
Ġmeet ing
Ġm o
ish ing
ĠE gypt
od ing
Ġdec ades
Ġbre ast
ĠS ocial
Ġst orage
Ġadv oc
ac ing
em pl
Ġcle arly
Ġtemper atures
Ġjust ice
Ġfre edom
Ċ ĊĠĠĠĠĠĠĠĠĠĠĠ
ord s
ic ated
Ġt our
Ġfil m
Ġcour t
us es
Ġp p
Ġare n
Ġh uge
Ġnut rition
Ġspe ech
Ġter rit
ed ing
ĠIt s
Ġfocus ed
Ġin sect
Ġun its
Ġmult i
Ġpract ical
ĠSe e
Ġmil k
Ġbuild ings
ĠMore over
Ġindepend ent
Im agine
le g
con st
Ġcare er
L E
ak ers
Ġeng aging
Ġstrateg y
ic ial
Ġemot ions
te e
Ġp ric
Ġassess ment
U R
s ol
ent h
u x
An other
b ox
Ġsee k
Ġb atter
ortun ately
Ġstate ment
om as
ĠM at
? "
c ript
Ġre place
T ype
g in
ĠFurther more
ĠS ch
Ġexc ell
Ġkeep ing
om a
ĠRe v
M od
z er
viron ments
Ġd ri
ib ilities
Ġcreat ive
Ġcy cle
Ġmin or
Ġstudy ing
ĠP ublic
Ġtre ated
erv ed
Ġset tings
ĠO b
it age
Ġextrem ely
Ġphen omen
Ġexper ts
ĠAssoci ation
sh ape
ĠA v
j oin
at ically
Ġcontin ues
ain t
s pec
Ġinterest ed
Ġcor respond
Ġprim arily
Ġc ook
Ġconduct ed
Ġdep ression
Ġcollab or
t ra
ct or
Ġpre t
ĠP al
m ary
Ġelectric ity
Ġsur vey
d b
Ġbott om
Ġst ar
Ġj u
Ġt rou
ĠPl an
Ġis ol
Ġhe ar
Ġt rib
i i
Ġcamp aign
Ġw is
Ġorgan ic
Ġp ul
ĠThere fore
ens es
Ġf lex
] [
ĠH ar
Ġnot ice
t hen
Ġwid ely
Ġeffic iency
Ġcar ried
iver se
Ġd ram
Ġprep ared
D A
ĠWh y
Ġsp ot
W hy
g ment
in n
Ġleg is
Ġgener ations
Ġs and
Ġfram ew
Ġgr ant
pos es
Ġb ud
ress ed
ĠDevelop ment
ĠG reen
Ġse cret
ĠB ra
ĠW rit
Ġb one
r um
p en
res ult
re p
Ġhig hest
er ia
Ġsp ring
Ġsy nt
Ġw all
ĠG ra
Ġcomb ination
Ġdr ive
Ġpro s
Ġstr ing
Ġhouse hold
Ġext ract
ĠJapan ese
Ġfavor ite
d a
ĠA N
Ġmov ed
Ġart ists
Ġmove ments
Ġinv ent
Ġperspect ive
Ġperform ed
ing er
Ġfam iliar
Ġth ick
Ġplay ed
ĠM or
le ge
Ġrecomm ended
The y
Ġcons ervation
ĠF ound
Ġch ronic
out put
Ġoper ation
ĠU N
Ġspirit ual
Ġs ong
Ġsp ent
or ial
Ġfund amental
Ġg ather
t op
Ġse ven
ĠGree k
st e
olog ist
il ing
ĠWilli am
em ic
Ġworld wide
oy al
Ġl ibrary
Ġme ant
Ġsign al
Ġrespons ibility
Ġcho ices
Ġsay ing
Ġbelief s
Ġen vironments
Ġf ine
Ġcult iv
Ġvol ume
ĠRet rieved
Ġox ygen
Ġcon ver
re ed
Ġvul ner
Ġsupp l
S A
Ġp le
Ġadd ing
Ġprofession als
Ġcons ult
Ġc overed
ĠM r
Ġdou b
ĠH uman
Ġfail ure
Ġk id
ĠPro gram
Ġproper ly
os en
Ġm el
Ġpol y
Ġex ternal
pro cess
Ġun iversity
Ġrem ind
Ġp al
Ġinc red
Ġd ra
Ġsy n
ig ure
ĠĠĠĠ ĠĠ
is ation
Ġlands cape
se c
Ġsignific ance
im al
Ġserv ed
c al
Ġemb ra
ĠS T
âĢĿ ,
Ġhapp ened
ĠOr gan
Ġar m
Ġdeg rees
im age
Ġimpact s
oc al
h ttp
Ġart icles
Ġit em
Ġcent uries
Ġse eds
ot ed
ĠJ ames
Ġt itle
d im
Ġless on
ro ph
Ġadv ice
ren ce
Ġc ast
Ġexam ine
Ġdog s
Ġse ed
ĠIs lam
Ġpl ot
o ke
Ġgener ate
op er
r ating
Ġcare fully
ing ly
E n
Ġp apers
d ent
Ġs amples
Ġu pper
ĠCong ress
Ġorig in
ric s
ĠUs ing
Ġo cean
Ġag g
Ġhigh light
ĠM ark
Ġsm art
Ġm ere
ĠSp anish
lab el
Ġlet ters
ic ians
Ġr ound
Ġclos ely
Ġcompon ent
Ġscre en
Ġar ray
I nd
ĠE very
app ing
Ġm er
Ġsat is
Ġcontain ing
ot al
Ġfin ally
Ġvol unt
Ġro ll
Ġfig ures
Ġs end
Ġwe alth
ĠIntern et
Ġprevious ly
ul f
ĠFeb ruary
ĠA ir
ĠF ood
ĠM ary
z a
Ġpotential ly
Ġim pl
Ġr ul
oth ing
an ch
Ġec osystem
() )
Ġad op
Ġamount s
l ines
' ),
ĠO ff
l ast
( ).
Ġnet works
Ġinfl amm
Ġl ooks
Ġrele ased
ĠS ub
ang es
C ont
Ġ err
m ap
Ġrefer red
Ġdescrib e
ess age
D ata
Ġinj ury
Ġfl ood
r ich
un k
Ġpur poses
C ol
( (
R I
Ġveget ables
C C
act ive
Ġown ers
b all
Ġh ttps
Ġdest roy
Ġconf irm
path y
ĠL a
Ġa id
Ġnucle ar
ĠB oth
ĠM al
Ġlink ed
ĠL ord
Ġjob s
ĠV ol
Ġp u
Ġsee king
el i
ol low
Ġp ages
ĠM ich
est ion
Ġaccur ate
writ e
Ġadvant age
w args
Ġpres ident
Ġour selves
r m
Ġg od
Ġt um
Ġle aving
Ġrad io
st ream
Ġstra ight
Ġtra ditions
Ġcon vent
Ġme at
Ġdang erous
Ġrem oved
Ġsurg ery
n ic
Ġcap able
Ġb attle
Ġestim ated
Ġform ation
Ġon going
Ġcred it
id a
Ġprom oting
Ġcom ment
Ġro ots
Ġro les
Ġexpl ained
Ġt ail
ĠChild ren
T hat
Ġmay be
it ness
b i
Ġmost ly
Ġrad iation
Ġre b
Ġen able
in ations
Ġposs ess
ĠStud ents
Ġpoll ution
Ġs ou
Ġset s
. __
wh ich
in ent
F rom
Ġrel ative
Ġother wise
Ġa part
ific ial
Ġh orm
Ġgra de
Ġsubject s
Ġp ush
Ġrecogn ize
Ġsqu are
ra py
ĠS y
Ġv ess
b ody
ipp ed
Ġguid elines
C H
N o
angu age
Ġvict im
Ġne uro
Ġch arg
ĠE v
ĠA D
ĠSu pp
as ure
Ġph ase
[ :
Ġup d
ĠCol lege
og ue
el lect
Ġrev olution
Ġegg s
M S
' m
Ġra in
Ġdeterm ined
ak er
Ġt al
Ġsec ure
Ġarg ument
ĠAs ia
augh ter
] (
ĠRem ember
ĠDav id
ĠPh ys
ĠRep ublic
ot ic
Ġfac ed
Ġatmosp here
ĠPro ject
ĠF ore
Ġmot or
ro c
Ġvit amin
Ġp un
i j
ĠWe b
y pes
Ġvo ice
ens or
Ġcomb ined
Ġn or
Ġdefin ition
Ġtreat ments
ĠR ef
ar row
. ;
Ġfarm ers
Ġgen es
Ġinfect ions
ĠIm agine
ut ed
Ġsp orts
Ġtechn ical
Ġintellig ence
Ġarg s
E qual
Ġmonit oring
ĠM ake
Ġgra nd
c s
ĠPro t
Ġcircum st
ĠC ouncil
Ġappreci ate
Ġe arn
Ġsupport ed
Ġreact ion
ĠM et
f aces
h ist
Ġfact s
P l
Ġt aught
ĠH ave
ĠB el
ĠT ur
Ġfrequ ency
Ġd ict
M any
Ġann ual
Ġmanufact ure
re et
ri age
l ig
Ġwor ry
Ġinvol ving
il ed
Ġperiod s
ĠA lex
Ġoffic ial
rast ructure
Ġlook ed
ric ulum
ĠL ife
Ġf aster
Ġnot ed
w ell
Ġk n
C T
Ġbar ri
Ġwh om
ĠD em
Ġcollab oration
Ġoff ered
Ġk new
ĠC re
al d
Ġsp end
F irst
z y
Ġcogn itive
Ġt alking
he nt
pp ing
Ġauthor ity
as p
Ġh our
Ġult imately
Ġn ations
Ġhelp ful
Ġre new
nd rome
Ġsl ightly
Ġansw ers
Ġp lease
ĠH el
Ġch arge
Ġhe aring
l o
Ġdisc rim
py thon
Ġal ign
Ġshow ing
ĠGe orge
Ġcomple ted
Ġgr ass
ĠB as
ess or
Ġk illed
Ġschol ars
Ġl ung
ĠIs land
Ġm it
Ġh it
ic ks
Ġide al
Ġt iny
is her
uild ing
Ġcons id
Ġexist ence
Ġre ached
ĠM useum
Ġstre am
Ġc ere
ar p
ĠHist or
y les
ĠO pt
c ell
ĠCl ass
** **
ĠG et
n s
ar io
ir ation
ĠP ort
ust er
Ġsubst ant
ret urn
ĠF am
as tern
O D
Ġdesc ription
Ġv ent
Ġexcell ent
Ġcr is
y cl
Ã ¡
Ġtru ly
Ġperspect ives
Ġimpro ving
ĠAd d
Ġsal t
Ġredu ction
s um
Ġsmo oth
oss ible
O ur
p red
ĠS et
Ġmaxim um
Ġto oth
ĠS un
A B
Ġis land
Ġpropos ed
al ysis
le te
in ant
Ġd ie
m aking
i ant
and er
um ber
Ġtra ffic
Ġknow s
Ġen ab
ĠU p
ĠPh D
ĠB udd
cre te
A ccording
Ġy ield
Ġexp osed
Ġob vious
Ġb rief
Ġke pt
ĠP aul
Ġgl ob
ĠS am
ĠR ober
ĠH IV
Ġph one
Ġb ank
Ġcand id
w ood
Ġelect rical
ĠB en
Ġlay ers
p ass
F ield
Ġpartic les
Ġ Ð
ĠS k
norm al
Ġinter view
l ib
ĠS uch
b ut
ĠT ex
Ġchemical s
Ġkind s
l ong
est ed
Ġsol ve
Ġac know
ri a
Ġam azing
Ġdel iver
Ġex change
y a
Ġra ised
ic it
Ġpart ies
Ġint ended
ĠC ath
f it
ĠO ut
Ġoper ating
T S
ĠC ult
Ġsu fficient
Ġdis cipl
Ġmus cles
Ġrem ained
Ġgood s
Ġflow ers
ag ue
Ġoff ering
M ore
Ġcertain ly
ĠM ount
Ġdraw ing
Ġco al
Ġf irm
Ġsc he
ĠA rab
ag o
ĠL ist
Ġb an
j son
H ave
ĠGovern ment
Ġindic ate
Ġmot ion
ough ly
com ing
Ġimm ig
g i
Ġsub sequ
st ep
N ew
Ġcomput ers
n es
Ġext reme
Ġreg ional
Ġselect ed
Ġthem es
Ġgovern ments
Ġm arg
ĠServ ice
st ract
Ġra w
r as
Ġview s
Ġreg ul
w in
ĠKe ep
ten ance
Ġaffect s
ĠâĢ ¦
Ġ Ã
ĠM iddle
e er
Ġdep ends
Ġliqu id
Ġset t
ars h
ĠS er
Ġhy per
Ġfollow s
v ille
clus ive
Ġdou ble
Ġfl at
ĠJew s
ic ious
ĠR ich
ind ing
Ġclos er
n y
Ġyou th
'] ,
Ġres ist
ad o
ĠCent ral
Ġfru its
Ġsh ip
D F
c ers
Ġregular ly
K ey
Ġfund ing
atur ally
Ġd ro
-- -
Ġnutri ents
it ors
( ),
Ġhapp y
w hat
Ġapp oint
Ġcon clud
iction ary
.. ..
Ġcreat es
Ġintern et
Ġed ge
Ġf rag
c est
Ġreturn ed
par ams
Ġsp aces
Ġfor t
conom ic
Ġwas n
Ġtext s
Ġhand le
g roup
Ġth in
Ġt ips
ĠP ract
Ġdisc overy
Ġm ort
row s
Ġsuggest ed
Ġf ab
Ġbir d
Ġre in
Ġas king
Ġc ert
Ġk ill
ĠCour t
ro id
ĠI N
st ood
ac ific
Ġhosp ital
Ġn erv
wh ile
C E
d en
Ġmain ly
Ġh idden
Ġinform ed
U N
Ġbeg ins
Ġinnov ative
Ġded icated
el ess
if ies
ĠD irect
b and
Ġmed ium
Ġinvest ment
Ġproced ure
or king
Ġrapid ly
ĠA I
ĠMex ico
Ġab use
Ġcare ful
G en
ĠC ivil
og ether
n am
Ġprote ins
Ġt ried
Ġw aters
Ġfor ced
ul s
Ġabs ol
Ġdoc uments
Ġd oll
on ic
ĠLear ning
Ġ Î
ĠSe cond
oun ced
p arent
Ġdis app
ot he
Ġst orm
ĠL atin
plic ated
w id
ear s
Ġcl im
Ġdiagn osis
Ġs outhern
Ġtox ic
ĠBrit ain
val id
Ġbr ight
Ġsupport ing
ĠWh ite
ĠH en
ĠA tt
Ġmo ist
Ġcircumst ances
Ġcl ient
Ġflu id
we ight
Ġoccur red
Ġst one
Ġbehavi ors
Ġleaders hip
Ġproced ures
p ost
Ġprep are
Ä ģ
ht ml
Ġwind ow
ak s
Ġlead er
Ġst ars
ist an
ific ations
Ġfound ation
Ġconsist ent
ĠD ist
ang ed
Ġman ner
Ġmill ions
Ġsu itable
ĠTw o
r ust
Ġint ellect
Ġsect or
Ġbro ther
ili ence
Ġse lection
Ġpo et
Ġl ies
ĠN av
Ġmod e
Ġy ellow
f ree
Ġemploy ees
Ġpict ures
Ġ !
Ġst ation
Ġinf rastructure
ĠMus lim
Ġl oved
ĠM ac
inst ance
d oc
Ġaccom pl
ap i
Ġmor ning
ĠN et
Ġpret ty
Ġer a
he rent
ĠN AS
ĠSp ace
dd en
s k
Ġdom estic
Ġbi ological
Ġingred ients
Ġunder lying
re c
Ġexpl an
Ġsk ill
Ġdec ide
ate ver
Ġveh icle
Ġj oin
Ġmat ch
Ġinteract ions
Ġb ow
Ġn orthern
y p
ĠO ld
Ġform al
m ethod
Ġd u
Ġset tle
Ġd rop
Ġinstru ment
Ġpric es
Ġcollect ed
Ġth or
ur ity
Ġp ray
H O
b ed
Ġwe ar
ĠTex as
lic k
Ġw alls
ool s
Ġob st
Ġguid ance
ĠC am
Ġinst ruction
ĠP ost
os ite
Al though
Ġele v
Ġdel ve
Ġneigh b
ic ian
Ġw et
Ġharm ful
Ġpers ist
Ġappear ance
Ġrecord ed
Ġvirt ual
ber g
Ġor al
ver ty
g al
Ġcl ick
ĠTechn ology
fil ename
Ġs now
Ġha z
Ġcor por
Ġpo verty
I R
Ġvari able
ex p
rol og
Ġsu dden
Ġext ent
ĠJ e
Ġdat abase
ri an
I G
N ame
U s
Ġrem ark
Ġl inks
n el
l a
C S
ĠMan agement
Ġdr iving
ĠIn c
w er
m as
Ġfost ering
ĠQ ue
Ġfac ilities
u ps
Ġcour ses
ĠGo ogle
Ġres ol
ĠAn other
Ġf oss
Ġ( '
Ġmor al
ĠDes ign
anc er
Ġdr inking
Ġw est
Ġw ait
assert Equal
Ġdiscuss ed
Ġfeed back
Ġemerg ency
u ing
r ates
om ic
Ġt ro
Ġdep th
Ġsens itive
Ġstreng then
Ġam b
Ġserv es
Ġdetail ed
Ġbl og
ĠM art
Ġentire ly
Ġcommunic ate
Ġfil ter
if orm
D e
Ġminim um
ĠM iss
Ġcut ting
Ġlist en
Ġpres c
ĠTh omas
che ck
Ġf ill
ĠSt and
ĠL ike
Ġdef ine
Ġstrugg le
D es
Ġs ides
ĠIn f
N ot
ĠT ime
Ġinst itution
Ġintrodu ction
Ġrec overy
os a
Ġl ots
Ġch ain
ĠS al
Ġexam ining
Ġmess ages
Ġtou ch
Ġs en
ĠB ible
Ġagricult ural
ĠB r
Ġshe l
Ġgir ls
Ġper man
vers ion
sc ale
ĠPy thon
c el
th at
k es
Ġstart s
ar ant
Ġsh if
Ġclaim s
Ġhe ro
Ġspe aking
ĠJ er
s plit
ĠW ork
Ġcontroll ed
ĠEn ergy
Ġcomprehens ive
A b
Ġinnov ation
Ġtyp ical
w est
ĠL eg
Ġatt acks
ag on
Ġrespons es
Ġshap ing
Ġreg ulations
str ing
Ġlarg ely
Ġst ages
Ġen em
ro ke
Ġaud ience
Ġaddress ing
ĠSom etimes
Ġmat ters
Ġp aid
u nder
ut ive
ĠB ay
Ġvacc ine
pos ition
Ġl ose
Ġr ural
Ġs ell
Ġp ark
ĠP sych
Ġgrow n
ĊĠĠĠĠĠĠĠĠĠĠĠĠĠĠĠĠĠĠĠĠĠĠĠĠ ĠĠĠ
ĠK ore
Ġrecogn ized
ce ived
Ġcons ists
cre ate
Ġch osen
dition al
ĠC are
Ġex ists
ĠMedic ine
L A
le an
M y
Ġtra um
ĠP ower
Ġdr ink
Ġli ver
ĠSt ep
Ġmechan isms
Ġsequ ence
Ġc m
I M
Ġb and
Ġa head
ens us
Ġrest rict
ĠW he
ic ing
Ġhabit at
ĠMed ical
ĠEm p
Ġt orch
Ġaccept ed
Ġmet ab
Ġinter vention
Ġw ants
Ġc ars
um in
ĠL ou
Ġtr ial
Ġpolit ics
Ġn ode
Ġagricult ure
Ġan cest
Ġpol ice
ĠRe c
Ġf ro
Ġrep rodu
Ġwe ap
Ġ( "
ar ter
h i
Ġad equ
Ġaim ed
Ġass istance
Ġlat est
ĠM em
Ġdi am
Ġprom pt
ĠD ise
ag ers
ĠS en
ĠS af
ĠO F
Ġc ooking
Ġm ent
Ġinteract ion
Ġc rops
Ġopen ing
Ġopin ion
ĠJ ud
Ġabs orb
Ġne ut
Ġsuccess fully
an es
Ġs in
Ġph r
Ġstud ied
Ġvari ables
Ġf iction
Ġstre t
Ġd ut
Ġnarr atives
ic an
Ġh arv
ĠW omen
ĠM il
Ġknow ing
Ġpro port
ĠFr anc
Ġn it
G o
ĠT reat
Ġst em
ĠCom mon
Ġsc ript
ĠAn y
Ġbud get
Ġcris is
est yle
Ġw ave
ĠRuss ia
ox ide
av a
ĠVir gin
g u
ĠEng ine
ex pected
Ġhundred s
es ter
Ġc atch
Ġser ver
u ous
Ġdivid ed
ĠM icro
erv ing
ĠD ec
ra int
Ġind igenous
ĠE lect
Ġre form
Ġad opt
Ġcou ple
A meric
B e
s is
ĠB er
Ġtrans ition
Ġrel ax
Ġent ry
Ġaff ord
ĠI r
Ġdiscuss ions
Ġprot ected
con ds
ĠNAS A
Ġres idents
Ġmeas ured
ro t
Ġsurv ival
Ġdoct ors
Ġs ession
r at
Ġapp arent
Ġdown load
Ġaccount s
Ġn aturally
Ġcall s
M ost
Ġall erg
ĠRuss ian
Ġact s
n ode
L ist
Ġneigh bor
itud es
ic ate
Ġveh icles
h ost
Ġcrit ic
Ġprinc iple
or ous
Ġpos itions
Ġparam eters
ĠIn formation
Ġsuff ering
per ty
Ġmach ines
B efore
Ġbeaut y
Ġg ar
ĠStud ies
ĠP acific
ĠAt l
Ġal t
Ġun iverse
ra cy
l ers
Ġim plications
Ġst ock
Ġrepresent ation
c hers
Ġh unt
Ġa f
Ġb rand
Ġmedic ations
Ġw alking
ocr atic
Ġexpl oration
Ġthe rm
Ġatt end
Ġre ject
Ġres ilience
Ġshap es
Ġw aves
or gan
i ate
{ }
Ġdep artment
er als
Ġt un
Ġnear by
a ud
ag ues
m ain
Ġeth ical
Ġdist ingu
Ã Ń
Ġco ff
Ġcons cious
Ġsim pl
ĠF orm
Ġtrend s
Ġast ron
NA ME
Ġcreat ivity
r ants
Ġmain tenance
Ġgener ated
a el
ĠF e
Ġint ric
p ers
us ing
Ġbound aries
Ġvis ible
ĠAc adem
ĠR ights
ĠSim ilarly
Ġunder stood
Ġs an
Ġstrong er
Ġsh ift
Ġc e
v an
I P
or row
B C
Ġcard i
Ġw ire
Ġconcern ed
Ġcur riculum
Ġbroad er
Ġprevent ion
G et
Ġfram e
Ġwild life
Ġtell s
Ġimm un
ere nt
Ġconcent ration
Ġconf idence
fl oat
Ġport ion
Ġmass ive
ĠFound ation
ci ence
Ġin ner
Ġframew ork
ol f
EN T
Ġbo ost
asc ular
Ġprodu cing
Ġs ick
ĠK now
Ġremain ing
Ġmob ile
Ġw ife
Ġk il
Ġhab its
in et
ĠB et
ĠB ook
Ġr ig
O f
Ġoffic ials
Ġimplement ation
ĠNew s
Ġas semb
Ġg ained
ĠW ind
Ġsubst ance
Ġab ilities
Ġar my
Ġobtain ed
Ġeng agement
Ġman aged
al ian
Ġman aging
Ġswe et
ĠWh o
um s
c a
Ġsign als
D o
Ġcl oud
Ġgreat est
Ġe ast
se ction
Ġdes ired
Ġappe ared
e al
Ġprogram ming
m ic
ĠEx per
ell ed
Ġn arrow
Ġsw itch
r ange
ĠM ass
Ġno ise
olic y
im g
Ġw itness
Ġsee ing
Ġs ed
ann els
Ġadv is
ĠP ers
Ġn urs
Ġf if
p ol
Ġa th
Ġarchitect ure
am pl
D E
Ġexp ensive
Ġimprove ment
Ġover l
Ġconvent ional
ĠS ov
Ġexpl ains
Ġdemonstr ate
ad s
ĠCont rol
Ġfl oor
ĠAr my
Ġread er
ot o
V ID
Ġcr im
ans ion
requ est
ĠComm ission
Ġdesign s
b ar
Ġn an
de v
Ġdecre ase
Ġrecogn ition
Ġpregn ancy
Ġexperim ents
is hes
D uring
Ġf old
Ġt aste
T est
st atus
id ay
Ġman ip
Ġst ored
Ġsu c
Ġimp ossible
Q u
Ġelect ronic
Ġmark ed
Ġim per
am ing
p et
act s
Ġp ure
s hip
Ġtest ed
ph a
as ive
Ġ ]
Ġsent ence
ĠD isc
Ġloc ations
Ġsold iers
ĠN or
k a
Ġsat ell
i pe
ber t
ci um
R ead
Ġg un
Ġp ig
Ġinflamm ation
Ġfail ed
Ġinj uries
Ġpar alle
val ues
Ġcustom ers
Ġpers ons
Ġmanufact uring
Ġslow ly
Ġpre v
B l
Ġb rown
cul es
ĠRober t
ult ane
Ġra il
ash ion
Ġphilos ophy
Ġconsid ering
ĠT im
ĉĉ ĉĉ
o om
Ġun less
Ġfost er
Ġtransport ation
ios ity
Ġto ler
Ġcl osed
Ġfac ing
ĠDes pite
c her
ĠD el
Ġv s
Ġsk y
re y
Ġw estern
Ġexerc ises
ĠCon n
Ġk m
Ġcapt ure
ĠEnvironment al
ot a
Ġrec ip
ĠPro v
Ġhor iz
Ġinstruct ions
Ġevery day
Ġparticip ate
Ġhor se
Ġind eed
Ġplay ers
Ġf le
Ġdef ic
Ġen ables
ĠS cient
ĠV is
Ġag es
ĠK ey
at o
Ġp and
O nce
ĠG roup
Ġreve aled
Ġk it
M e
Ġplatform s
B N
Ġpre m
Ġpr ison
Ġexc iting
t able
======== ========
Ġagree ment
Ġart ificial
Ġthera p
ĠCour se
oc ab
Ġst ick
Ġc os
ĠG ood
ĠSm ith
Ġm ac
ixt ure
L O
ĠSe a
Ġr hy
Ġc rop
ot ion
Ġrem ote
ur d
if ier
Ġsh op
Ġder ived
ĠD iv
Ġd ental
le ments
Ġinc hes
ĠD et
p ack
Ġsecond ary
Ġst ands
M L
Ġcompet ition
ang o
ĠN ature
Ġt it
du le
Ġfix ed
Ġp il
ĠI dent
k wargs
Ġag reed
Ġp air
Ġmon itor
Ġincorpor ating
Ġfl oat
Ġcomp osition
Ġr ub
Ġconsum ers
ĠT HE
v ity
n ames
op en
w o
app y
Ġmix ed
Ġphot os
Ġext ended
Ġher itage
in ity
Ġch art
um es
lect ed
ĠL ake
A pp
Ġpsych ological
Ġstand ing
ĠPh il
ĠSt e
Ġposs ibly
ĠM ont
ĠIn v
Ð ¾
Ġus age
ipp ing
ĠFl or
Ġsy ndrome
Ġv ibr
? âĢĿ
Ġarr ange
S E
Ġun s
Ġforest s
Ġpl ate
Ġturn s
Ġens ures
Ġdynam ics
Ġdep ict
Ġp ip
D r
ad a
Ġinsp ired
op eration
r c
ĠS ec
Ġm useum
es h
Ġdirect or
Ð °
Ġincred ible
Ġso le
Ġrepe ated
Ġaut hent
our se
Ġdeath s
def ault
ke ys
V al
Ġpass ion
i en
Ġevalu ation
Ġanaly ze
p ace
S c
ĠF in
Ġshe ll
Ġprot ocol
Ġmathemat ics
ĠStud y
Ġsus p
ĠCath olic
Ġbenef icial
Ġwrit er
Ġp ull
cl ient
in i
Ġexam ination
f ortunately
Ġ! =
Ġb ones
Ġb ot
Ġintellect ual
ĠTh ink
Ġliter ary
Ġag encies
Ġar ms
Ġst ated
Ġthe ore
Ġachie ved
Ġun known
ĠS ar
Ġorgan ized
cy cl
Ġmed ication
Ġexpect ations
Ġres olution
ĠC D
Ġvill age
Con clusion
Ġmar ine
um ps
Ġaccur acy
U L
Ġth read
ĠS um
Ġemploy ed
Ġsupport s
Ġwhere as
it ivity
Ġopen ed
Ġerr ors
ent ed
w ing
im er
ĠC reat
Ġwrit ers
Ġmeaning ful
Ġconf ident
Ġsc ore
Ġadop ted
Ġlim its
u ation
Ġcateg ories
ĠM ain
as ters
Ġd ust
as er
n n
Ġrec ycl
Ġdeep ly
er ated
ĠA P
ĠB re
Ġb io
ĠCom put
i at
Ġpow ers
Ġar ts
Ġdescrib es
y e
Ġfunction al
Ġarg uments
de red
ĠCar ol
f unction
Ġchild hood
Ġeth nic
Ġrepresent ed
Ġevalu ate
Ġarr ived
Ġdemonstr ated
or ter
Ġt ur
Ġfor get
d ep
Ġh ar
Ġemerg ing
Ġreact ions
Ġsc ene
Ġle ct
Ġcom ments
th rop
ul in
Ġman if
ul ating
or al
ic king
Ġexpl o
ar ity
B T
Ġbr ings
Ġconvers ation
Ġab und
Ġdist ributed
Ġappreci ation
Ġreal ized
Ġdynam ic
u h
Ġf ell
Ġadminist ration
Ð µ
Ġdo or
z en
ĠAm ong
ĠN ative
Ġhous es
Ġin hab
Ġhold s
Ġlist ed
Ġsuff er
! "
Ġre ly
Ġwis dom
Ġext ensive
Ġc art
oc ation
urn s
ĠChar les
ĠHen ry
. '
} ,
ess ions
ĠJ ose
l ength
h us
ĠW ild
Ġa qu
port s
os c
Ġwor se
Ġb le
i ology
Ġcollect ive
A A
Ġbehavi our
Ġneg ot
Ġg rew
Ġp ump
Ġacc el
ĠInt roduction
Ġdecl ine
ĠW il
Ġsupp lement
Ġindust ries
Ġdis s
Ġfl ight
ĠCons ider
S S
s he
it em
w orld
Ġfew er
Ġle af
ri p
Ġins urance
ĠA cc
Ġun us
Ġtrans mission
Ġinf ected
ar ia
Ġbl ocks
Ġint ake
Ġhe aling
es ity
ob j
Ġz ero
Ġpresent ation
al a
t age
us iness
col or
Ġrat io
Ġcam era
Ġfert il
Ġposs ibility
Ġtechn ological
Ġalong side
Ġch ief
ĠComp any
up date
Ġimmedi ate
Ġmar riage
ĠE xt
erson al
hem ical
Ġcoff ee
ribut es
oc racy
ĠSov iet
T e
ph one
Ġcreat ures
at he
Ġmat rix
' d
ri end
Ġnorm ally
Ġmount ain
ĠO x
Ġdiscrim ination
en a
In st
Ġseem ed
ir t
Ġem pathy
mod els
r ons
ĠL ibrary
p read
Ġste el
Ġsurv ive
ĠY et
Ġfight ing
Ġmole cules
Ġtw ice
in du
Ġd ensity
Ġg all
Ġcomfort able
ĠTh ose
ĠP C
Ġmark ets
Ġreturn s
s uch
ĠD iff
g ent
ĠRe view
le ts
Ġdes ire
Ġnum py
Ġindic ates
word s
act ions
Ġnavig ate
B ob
h ow
Ġlearn ers
Ġt all
w ar
Ġmiss ing
Ġm oon
Ġapp lying
ĠProf essor
Ġcolle agues
ival ent
ĠS l
Ġcould n
Ġauthor ities
Ġl atter
Ġbro ken
Ġal le
f rame
it ative
Ġw ish
âĢĻ .
Ġd in
m m
om ach
A G
ĠGl obal
Ġexpress ed
Ġbreat hing
ĠCanad ian
ĠI P
m essage
Ġins ight
Ġpur su
ĠAb out
Ġcomp are
'] )
Ġyoung er
Ġlif estyle
Ġsociet ies
Ġadvant ages
vent ions
ĠM o
Ġwill ing
Ġgu ess
Ġsociet al
b ase
Ġpublic ation
Ġpro ve
Ġst yles
Ġobserv ations
igh ter
ass ion
ct ic
me an
s m
g est
Ġin ject
Ġnecess arily
Ġpub lish
d et
clud ing
b ra
b urg
ĠM ag
rop ical
rib e
cl aim
Ġst rict
Ġsim ultane
Ġg al
Ġpain ting
id x
ro vers
Ġup date
Ġoptim al
Ġcommit ment
p age
st one
Ġf ant
on a
Ġm amm
Ġlist ening
s or
Ġcontinu ous
Ġhous ing
b orn
ak ed
Ġsuppl ies
Ġcr ime
Ġdeb ate
Ġax is
A ct
Ġ[ '
Ġfocus es
Ġag ency
" ),
Ġsh ut
ĠB ro
ĠE ss
Ġvulner able
Ġmy th
Ġconst it
ed y
ĠL ong
Ġcateg ory
O r
ĠH am
Ġcomp r
Ġc oun
P R
ĠF inally
Ġsuc ceed
Ġf av
Ġparticip ation
Th rough
ĠE st
Ġa er
Ġt f
ad ata
Ġorgan isms
ra ys
ib l
Ġgreat ly
call ed
ov es
Ġdom ain
Ġadvent ure
esc ription
Ġpre val
ĠOn ly
Ġinstru ments
Ġacc um
Ġorig inally
ĠO h
point s
ĠLou is
Ġfab ric
Ġthere by
l oss
u a
Ġf ly
re al
Ġdep os
ĠG old
h av
Ġelect ron
Ġe ar
Ġsect ions
d em
Ġcirc uit
at al
ĠL and
Ġe ld
wid th
d r
Ġreg ist
Ġde aling
Ġeng aged
ang le
Ġver b
O ther
ĠA p
Ġturn ing
ides pread
Ġdifficult y
Ġemerg ed
Ġbreat h
Ġphys ics
Ġphot ograph
c m
Ġen ds
ĠAustral ian
Ġart ist
ĠN ations
ploy ment
Ġthreat s
ĠVirgin ia
Ġthan ks
Ġf ellow
Ġb read
ĠT em
Ġmechan ism
ĠL anguage
Ġme al
Ġhold ing
Ġaccess ible
Ġor ient
Ġdel i
it tle
ĠL icense
Ġindepend ence
Ġs ight
Ġin du
Ġconsider ation
ĠT re
ĠE th
Ġdist rict
Ġwh atever
hold ers
and a
II I
Ġgu arant
Ġbatter y
amb da
Ġs ke
hes is
Ġgr id
Ġte ams
Ġemploy ment
ful ness
Ġobject ive
Ġmagn etic
ĠRev olution
Ġantib iot
Ġcom plicated
Ġserv ing
ĠB efore
h op
Ġair craft
Ġem pt
Ġfund s
C D
t arget
ĠN on
Ġwarm ing
Ġrel iable
Ġwa iting
Ġst ability
Ġc ards
a o
ĠCur rent
op les
F inally
est ing
Ġopp osite
Ġbe ar
Ġd rain
ĠFr ank
M P
all ow
Ġacc ident
Ġtra ined
st s
g ans
Ġrout ine
Ġtri p
ĠChe ck
Ġunc ertain
in ction
L e
Ġinsect s
Ġdoub t
z ed
ĠF ederal
ob s
s ource
c or
Ġm aps
Ġs od
] :
Ġdeli very
Ġt ap
Ġun expected
Ġocc asion
p ress
ĠPar is
Ġch ick
ĠAd v
Ġs ought
Ġadminist r
pr ing
Ġfl ag
ĠE arly
ĠCom mit
Ġla un
Ġme als
Ġaffect ing
ĠOff ice
R A
Ġed itor
ĠEmp ire
Ġlog ging
Ġconsum er
Ġprepar ation
ict or
Ġnot iced
Ġmod ule
Ġatt ached
Ġf alse
eli hood
Ġsp ending
Ġcharacter ized
ĠSt r
cont ent
Ġredu ces
li ament
Ġconcern ing
Ġs plit
Ġst ake
aut hor
Ġac ids
Ġsubst ances
os ph
ĠR ad
Ġplay er
Ġdem ands
Ġinit ially
iss ues
Ġenc ounter
ult y
ĠInd igenous
Ġpl t
b in
ĠT ype
ĠLab or
Ġthe ories
Ġcur iosity
Ġst able
Ġbe ings
omet ry
j ango
ro g
r us
Ġheav ily
Ġal ter
. |
et te
Ġfoss il
ĠC y
Ġad m
Ġcompar ison
ĠUS A
k in
O ver
r ine
Ġb order
O L
anc hes
ĠO pen
ĊĠĠĠĠ ĊĠĠĠ
Ġvess els
Ġc up
Ġcor n
Ġte en
Ġbut ter
Ġs ales
Ġw idespread
Ġprodu ces
ind er
p are
Ġsum mary
ip al
ell a
Ġcal cium
Ġpurch ase
Ġmathemat ical
Ġent hus
U nder
ĠE nd
Ġpart ner
ĠD ig
or a
ĠS ym
R ef
Ġdra wn
Ġregard less
S et
Ġnew sp
Ġst omach
Ġfor th
Ġcomplex ity
T P
S P
ock et
omm od
ĠConst itution
ess on
Ġcomp ounds
Ġremark able
Ġprof ound
Ġsur ve
ĠIt aly
ĠI ll
it ter
Ġfib er
ĠFlor ida
ail ed
Ġhuman ity
pt ions
P e
Ġd f
Ġun able
Ġre ven
Ã ¼
com fort
ĠH ome
ic ide
is k
res hold
Ch apter
f old
par se
ĠCol umb
Ġd ance
O b
Ġn one
Ġin herent
ĠM ill
ast s
Ġcon g
Ġl ic
Ġte a
Ġra cial
Ġpr on
ĠCO VID
Ġput ting
Ġperman ent
ĠS outhern
Ġcontribut ions
ĠA ccess
Ġin hib
Ġla unch
rib ed
Ġr id
Ġm ood
Ġadequ ate
ĠR ob
Ġcl othing
Ġper m
ish ment
Ġtro ops
Ġres erv
čĊ č
ĠN atural
Ġprevent ing
r d
Ġsmo king
ĠL ib
ch ild
ĠSt reet
Ġh us
Ġcon vey
Ġpro ceed
Ġinflu enced
Ġj son
Ġexp ansion
Ġdel ay
R em
Ġleg s
Ġsur faces
M A
Ġcrit eria
Ġhapp ening
S ince
ren cy
St ud
Ġrepl aced
Ġsw im
ĠB ur
Ġoper ate
Ġob lig
Ġjo ined
ter ol
or ph
Ġtrou ble
ĠMod ern
Ġsubsequ ent
Ġover w
Ġcommit ted
Ġc ul
Ġl ens
op ic
ĠK h
Ġlimit ations
Ġiniti atives
Ġm and
ĠF re
d raw
Ġdec ade
Ġang le
Ġcon crete
Ġins ert
Ġfor g
t itle
ĠAn n
ĠFranc is
ĠIS BN
Ġsubstant ial
as y
M ed
Ġsub s
ĠR ome
Ġt u
Ġg one
ĠH aw
Ġm ys
is ters
ĠT er
ĠEn c
ro oms
ed ge
Ġas p
Ġch annel
Ġstre et
Ġfocus ing
Ġc raft
____ ____
ĠDise ase
ĠT ake
Ġd ent
Ġref uge
ĠP eter
Ġcry st
oles terol
Ġhyp othes
Ġcent ers
E P
Ġconf erence
ĠD an
Ġprotect ing
Ġdist urb
f irst
ĠCol or
ĠP ub
Ġconflic ts
Ġcol our
ĠMe an
Ġfacilit ate
Ġterrit ory
C an
Ġf ract
ear chers
P ar
Ġv ac
Ġpercent age
f un
Ġrun s
Ġt ut
Ġch rom
Ġlabor atory
Ġf ashion
at ial
Ġreal ize
or ig
Ġm ild
Ġlab els
Ġz one
ul ary
ĠRep ort
z il
Ġre ward
Ġintrodu ce
Ġ q
Ġgl uc
Ġaim s
v ol
opy right
Y our
Ġmind s
Ġwould n
er ior
ĊĠĠĠĠĠĠĠĠ Ġ
Ġdet ection
ograph ical
Ġr ice
Ã ³
ir atory
Ġro of
Ġse conds
Ġath let
Ġpres erve
ast y
Ġsymbol s
Ġr u
ĠA ge
Ġresult ed
Ġ{ '
so ft
Ġdec or
Al ice
ĠO cean
id ity
Ġcont rovers
Ġint ent
ĠI re
Ġin equ
Ġreve al
Ġtr ials
ã ģ
ab s
Ġfl our
Ġv eter
ĠD oes
Ġsac r
Ġg ap
ĠT V
Ġinstall ed
Ġthem e
e enth
Ġinvestig ation
Ġpro of
cur rent
Ġj ump
ut s
Ġshe et
ir us
ag raph
Ġconst itution
ffect ive
Ġst uff
Ġne ck
Ġd aughter
force ment
Ġneighbor hood
ĠCl in
Ġal ike
S u
ĠT or
Ġbr idge
ĊĠĠĠĠĠĠĠĠ ĠĠĠĠ
Ġmit ig
Ġdis rupt
Ġl ibr
Ġrecommend ations
Ġidentify ing
i h
ĠEx amples
S D
et ies
Ġinter f
= [
Ġad j
on ia
Ġrout e
Ġprom inent
k ins
ĠC ap
pl ant
Ġbig gest
it a
Ġcon ven
Ġrece iving
Ġsh ot
Ġencourag es
i ated
Ġfe els
ĠIt alian
Ġgradu ate
Ġdep art
Ġenab ling
con f
arg ument
Ġpass age
C L
ĠE astern
Ġw arn
Ġg ram
ex ample
r int
Ġcur ious
Ġemot ion
Ġrel ation
Ġcont ained
Ġarg ue
Americ an
f ish
Ġgradu ally
T H
h ma
Ġexcess ive
ov en
Ġcor ner
he ast
se y
Ġthe sis
Ġconstant ly
ĠN orthern
ocab ulary
Ġbarri ers
Ġd ream
Ġhyd rogen
ĠAs ian
et t
Ġengine ers
init ely
Ġn ine
ch o
I d
Ġmem br
Ã ¶
Ġc row
Ġun w
F igure
Ġl iv
Ġent ertain
ĠU t
ĠM ad
Ġinteg rated
Ġmere ly
ĠSp ain
out s
. âĢĻ
Int roduction
Ġprovid ers
ut ch
Ġne ur
s l
ic ago
ĠAN D
ter y
T ime
Ġmov es
Ġdial ogue
Ġh ole
ir ty
Ġequ ivalent
Ġest imate
Ġp ra
ap h
Ġsustain ability
Ġdo i
Ġfound ed
Ġgreen house
âĢĻ ,
Ġfeed ing
br idge
Ġpres ents
Ġinterpret ation
Ġbi ology
Ġanal ys
Ġv ote
Ġad vert
ĠJose ph
Ġprint ing
us al
Ġacc ommod
Ġimplement ed
it an
Ġstat istics
Ġmus ical
edi at
ual ity
b ing
ĠM ult
Ġsatis f
Ġtw enty
Ġam id
O C
E d
f ts
Ġevol ved
ist ical
Ġcalcul ate
Ġse g
Ġag ents
Ġhon or
f ill
Ġdifferent ly
qu ality
Ġcorrect ly
Ġeduc ators
ĠS ign
Ġre cept
Ġart istic
Ġposs ibilities
Ġmoist ure
Ġexpert ise
c ase
Ġab stract
Ġn erve
Ġrob ust
D P
Ġcolon ial
Ġgra d
Ġris ing
Ġtreat ing
Ġmar ried
c hen
Ġsh ad
Ġsupp osed
Ġthous and
it ory
ov ing
m edi
g rad
Ġwhen ever
ear ing
Ġintric ate
ment ed
il ation
s pe
Ġpl enty
Ġend ed
ever al
ont al
on ents
Ġdiv ision
S ee
ĠS ing
Ġmys elf
a wn
Ġinter ventions
Ġmeasure ments
in ates
Ġconvers ations
Ġequ ally
Mod el
Ġcont amin
Ġmeasure ment
Ġe pid
Ġunus ual
Ġsp ok
Ġinst ances
Ġdifficult ies
Ġtarget s
Ġlegis lation
################ ################
ors es
Ġrel ief
Ġcap abilities
ĠIre land
ĠR oyal
Ġc ust
Ġdi oxide
ik ip
Ġsy s
ĠP op
Ġcomb at
Ġrequ iring
ĠT itle
Ġbr anch
b les
m es
Ġm m
Ġbring ing
Ġp ool
Ġphenomen on
Ġestim ates
Ġown er
Ġout come
us hed
F ile
| '
Ġdeb t
ĠM ars
Ġp ed
Ġparalle l
Ġoverw hel
ĠM ax
Ġr ivers
O P
ĠAd minist
ir ds
Ġobject ives
Ġmechan ical
ĠCommit tee
cl ose
Ġeffect iveness
Ġass ume
ĠB C
e ers
ut ils
resp onse
er as
u gh
ĠP an
Ġn ic
Ġn ob
ĠS pe
and on
f ind
ne ys
Ġcontrol s
es is
Ġt issues
Ġdestroy ed
Ġdiscuss ing
Ġ ille
ĠW here
ĠL iter
Ġinteg ration
g ers
ant ly
Ġo d
ĠRes p
ĠCh ange
Ġspec ified
ĠF ree
cept ions
Ġover come
Ġsc hed
et ch
P er
Ġpain t
Ġob esity
o ir
Ġdiagn osed
Ġr an
Ġacknow led
Ġcomp rom
Ġstim ul
v ar
Ġw ww
Ġc ats
l ights
os ion
Ġout l
A dd
Ġpass ing
ĠIm p
ant a
Ġalgorith ms
he alth
Ġminim ize
Ġperform ing
li k
Ġmin erals
Ġb iod
Ġw el
Ġcl ients
Ġj oy
Ġrep air
Ġfair ly
Ġm eth
Ġp up
Ġdis put
Ġnot able
Ġmov ie
ĠC amp
Ġb oy
b atch
Ġf urn
Ġhistor ic
Ġa ward
it z
ill a
Ġsol ving
Ġcontribut ing
ĠP M
ĠMod el
Ġb atch
Ġexplan ation
Ġexpl icit
ĠF ollow
Ġfin ished
Ġfrequ ent
Ġfarm ing
Ġfl av
Ġco vers
y roid
Ġrep ut
Ġcon vert
Ġhand ling
ĠC ancer
ac les
te en
rit is
ĠSt art
et ics
ĠG ard
Ġunivers ities
it ical
Ġro cks
Ġdevelop ments
Ġdang er
Ġcustom er
ĠGe org
Ġp arser
Ġk ne
Ġmy st
Ġdat aset
Ġalgorith m
ĠB ank
Ġtrans c
Ġlight s
Ġexperi encing
Ġch olesterol
)) )
p op
Ġm ur
Ġstrong ly
Des pite
ĠHistor ical
ĠS chol
Ġsh ips
ik i
ĠSc ot
M an
âĢ ĺ
ro ot
Ġstruct ural
Ġexcept ion
Ġsimultane ously
B S
Ġt ag
t ic
e en
Ġsc an
Ġunivers al
aw s
ĠAn alysis
ĠRich ard
ĠCre ate
Ġor gans
con c
Ġform ing
Ġsc ores
ĠC a
Ġvide os
ikip edia
Ġspecial ized
ĠCommun ity
ar ks
ĠT imes
> >
Ġs hed
[: ,
Ġph arm
Ġne ither
Ġnew ly
og rap
Ġemb ed
Ġf est
Ġvictim s
er ies
cap es
Ġvisit ors
Ġs izes
Ġsp in
s ave
Ġsp ort
Ġb ath
Ġnerv ous
ĠR om
Ġclean ing
it als
c ar
ax is
Ġreal m
Ġassoci ation
ĠW ood
rain ing
oc y
Ġn u
Ġst ores
Ġd ys
ru ption
Ġdam aged
ĠâĢ ¢
Ġeas tern
Ġrespect ively
Ġencourag ed
ĠBo ard
Ġtraum a
L ear
it t
sequ ently
Ġrepresent ing
ĠM a
Ġelect ro
Ġt ank
Ġs essions
Ġf u
ĠCl imate
Ġvol tage
Ġcir cle
Ġinflu ences
Ġcontribut ed
Ġadd s
Ġout bre
Ġ icon
ĠIn it
ro x
ĠSc ott
Ġf er
erv ice
f n
I A
Ġ' ''
Ġdef e
att r
Ġsh arp
Ġpract ition
ĠIn s
Ġobs erve
ĠFam ily
Ġcor rel
Ġsmo ke
on ym
ol a
Ġcomput ing
Ġstate ments
en v
ĠGu ide
S ub
Ð ¸
ĠP enn
ag ram
op es
Ġlaun ched
ĠG al
Ġres ident
L ast
Ġre aching
Ġpe oples
Ġbig ger
Ġmin ing
Ġmy ster
Ġbut ton
T oday
ri er
ct ive
Ġres on
Ġmole cular
ĠW orks
ost ic
Ġrhy th
g ov
Ġt ack
] ]
Ġequ ality
ĠAg ricult
ty pes
Ġpoet ry
Ġattempt s
Ġint ense
ĠW ill
, '
ĠE U
ä ¸
ĠE c
Ġb anks
Ġbl ind
Ġextra ord
gen er
it ual
Ġm ice
pe ut
Ġcoast al
se arch
Ġinteg r
Ġtrans formation
ie val
Ġg ent
Ġweap ons
Ġm ir
Ġis instance
Ġfl o
ĠH y
Ġpsych ology
iz ers
Ġobserv ation
i ences
am ine
Ġpu zz
Ġsome what
ĠVal ley
Ġcontain er
Ġemp ower
Ġqual ities
ĠMich ael
Ġbr anches
Ġcrim inal
ĠTh ough
ress ing
fil es
Ġreg ulation
Ġcar b
ĠSci ences
ol esc
ell s
ĠMay be
ĠB rown
Ġ} ,
ĠM ethod
Ġfriend ly
the less
Ġin n
ure au
Ġwatch ing
Ġshap ed
conn ect
k l
Ġaut on
Ġform ula
pro perty
Ġ rom
Ġempt y
Ġincorpor ate
Ġiss ued
Ġbond s
Ġarch ae
R eg
ĠH appy
Ġfe ver
V iew
q l
Ġline ar
Ġfac es
Ġwebs ites
ab led
ain ing
num ber
Ġcarry ing
a ired
ĠO R
u ke
ĠSt at
ĠF ind
Ġmom ents
f ast
ĠRe al
ac her
athe red
Ġdef ense
Ġdig est
b ur
Ġst roke
ĠV er
. """
Ġag ent
Ġproduct ivity
Ġent ered
Ġre ct
Ġsit ting
Ġassign ed
Ġphot o
ail able
Ġbo ys
% .
Ġm os
ĠN ever
Ġessential ly
ig ma
ĠAcadem y
al i
ĠW ord
Ġr ank
ĠSpec ial
ĠV ictor
Ġvari ations
Ġpo ison
ĠInd ust
Ġconstruct ed
H D
Ġper mission
air y
Ġin her
Ġcapt ured
an i
ĠCh icago
is p
Ġmar ks
Ġcorrespond ing
P re
Ġ ),
Ġch ances
Ġsche dule
Ġdesc ript
Ġb low
Ġencourag ing
un ning
Ġab andon
Ġdest ruction
Ġc aught
v a
Ġst ead
Ġupd ated
s im
Ġvirus es
Ġcomp assion
Ġjud ge
H T
ĠBra zil
en ess
Ġm ask
Ġliter acy
Ġdis pl
Ġpl us
Ġpe ak
Ġprint ed
ari os
row ing
T ext
ĠT ry
Ġcomp ens
Ġwell being
Ġr anging
ĠChristian ity
ym ph
Ġvol can
Ġwid th
or ate
P art
ult s
og a
am ination
ab il
ap se
S C
rand om
ur rent
r ary
Ġes cape
ac co
Ġactiv ely
ï ¼
D on
Ġrob ot
ĠB ab
to ken
Ġperson ality
Ġp it
ass es
Ġenem y
Ġstrateg ic
Ġunder t
b a
ĠB ig
Ġvers ions
Ġcy ber
ra c
ĠSec urity
f riend
Ġsurpr ising
Ġgluc ose
S p
Ġmod ified
err ing
Ġefficient ly
I F
ĠServ ices
ĠW elcome
Ġburn ing
Ġworks he
A m
S he
ĠL ast
d i
h as
qu it
Ġsun light
am i
Ġar ise
Ġins pect
Ġra b
an o
ĠYou ng
Ġsl a
col umn
Ġimplement ing
ĠVal ue
st ack
ot ton
ĠV iet
F orm
Ġecosystem s
Ġrenew able
Ġprom ise
Ġam pl
Ġmet ers
Ġh un
k i
ĠI II
ree k
ĠWhe ther
am ins
Ġaw ait
Ġpract icing
ort ed
ĠCarol ina
} )
Ġnarr ative
Ġc av
Ġd ates
S im
ut rition
Ġemphas is
E ven
ple te
R C
Ġt ables
Ġappro ved
Ġpos it
Ġfem ales
Ġmarket ing
Ġpref erences
oc king
ĠSar ah
Ġn ose
Ġexpl ored
Ġcomp osed
v ance
Ġclass ic
Ġt ub
ch arge
ĠI ran
c ore
ĠPart y
Ġplan ned
Ġs ad
', '
ĠO per
Ġgir l
est ions
ĠF ace
Ġdes ert
d ist
Ġweak ness
st on
Ġkid ney
se m
Ġdis aster
i ar
es ides
Ġautom atically
ĠS il
op ath
Ġann ounced
Ġm ixture
ĠChrist ians
P E
ĠPl ant
ad ing
Ġscient ist
b ug
Ġur l
Ġmort ality
Ġass ets
Ġbab ies
Ġord inary
Ġexpress ions
Ġimprove ments
Ġpur s
Ġkeep s
Ġprec ise
Ġdim ensions
Ġsla very
Ġre nder
Ġpo em
Ġindic ated
Ġanaly zing
ĠT ogether
Ġprov en
Ġconsider able
conn ected
Ġt ube
t em
Ġm ales
ens ional
Ġfall s
az ine
Ġl ingu
ĠU lt
Ġpar as
th is
Ġr ing
ut ely
In ter
Ġatt ach
Ġbr ush
Ġinsp iration
Ġsign ed
d oor
T rans
ES T
Ġlegis l
ov ascular
eg in
Ġgu ard
Ġch annels
Ġins ulin
Ġprof ile
Ġd b
w ind
Ġavail ability
Ġpan el
y al
Ġres id
el esc
Ġst rain
Ġproport ion
Ġla id
Ġtra its
ot ype
elf are
ad y
Ġwonder ful
ĠS at
low er
ins on
Ġp in
Ġmem ories
Ġc ash
Ġprov ed
ĠF ort
ud e
Ġt ons
Ġdecl ared
Ġdis par
ĠPro cess
ĠHol y
ĠB ack
Ġmeas uring
Ġun iform
ry pt
Ġcy cl
Ġfind s
Ġorig ins
ĠUn fortunately
Ġdis abilities
ĠDe v
Ġw ine
Ġext end
Ġtarget ed
U M
it ure
Ġvari eties
Ġra c
Ġcoun sel
Ġhe ating
sh ow
Ġsen ior
Ġdepend ent
č ĊĠĠĠĠĠĠĠĠĠĠĠĠĠĠĠ
Ġper ception
Ġplan e
Ġsatell ite
Ġsens itivity
az on
) ]
Ġep is
ou rage
ia h
-------- ----
Ġprepar ing
Ġenh ancing
Ġpres erving
s en
Ġnorm s
A ut
Ġatt itudes
Ġident ification
y ou
Ġt act
less ly
Ġcl ub
Ġscen ario
ĠP ot
ĠN ote
ĠOpt ional
Ġexhib it
Ġm old
Ġdef end
ro at
ed u
ĠN az
Ġinter face
ĠIr ish
Ġus ual
Ġt ension
ou nce
Ġele ction
Ġprovid er
t elling
Ġsaf ely
l ock
on al
Ġequ ation
Ġmicro b
Ġcount y
pro ject
Ġche st
n ight
Ġpriv acy
Ġremov al
ot ypes
Ġqu iet
Ñ Ĥ
Ġcont ribution
Ġsc ope
Ġdoll ars
Ġinhab it
Ġhus band
Ġpe er
Ġcho osing
ĠB ob
Ġroad s
Ġv el
ĠSystem s
Ġhe m
Ġinsp ire
Ġs ampl
Ġresp iratory
l ink
Ġmetab ol
Ġsens ors
Ġv ocabulary
Ġcelebr ate
Ġw ound
Ġconnect ing
ĠKing dom
Ġout er
Ġtra ct
Ġint ensity
Ġextraord inary
Ġexperim ental
op ol
ĠM el
ĠM en
Ġfac ility
ĠStr ateg
Ġaud io
Ġmarg inal
ĠB uilding
Ġfac ulty
Ġwind ows
ĠP o
Ġec ological
g raph
ĠApp lic
Ġr itual
Ġprotect ive
Ġf inger
ak istan
% )
C he
Ġdis pos
E E
Ġdr iven
Ġir rit
ha ust
br id
her ic
ĠH and
Ex ample
u id
Ġim aging
Ġt urb
it ems
= {
Ġw arning
Ġh orses
Ġg ut
Ġfe at
Ġdecre ased
Ġl ie
Ġmaintain ed
Ġpros pect
Ġco verage
Ġmin ute
Ġopin ions
em ia
Ġst ere
Ġve ctor
ĠL ook
qu ery
Ġess ays
Ġabsol ute
Ġgal ax
Ġtheore tical
ĠIslam ic
Ġspect rum
Ġmicro sc
Ġal ive
Ġhon est
Ġdri ver
ĠJohn son
ĠY ear
Ġinteract ive
Ġpro hib
ĠIm port
Ġcalcul ated
Ġh oney
ive red
ust ain
Ġs oph
c f
Ġg iant
ĠZ eal
Ġint rig
ĠLear n
Ġc oc
ĠB usiness
ip her
Ġcapt iv
Ġstr ange
ĠAtl antic
ID S
Ġdiet ary
s g
Ġearth qu
rou s
Ġadv ances
Ġany where
Ġh ur
Ġp ounds
Ġdef ect
empl ate
ail ing
Ġsp ir
ĠMart in
it amin
Ġbre eding
ĠA st
oh yd
Ġtrans lation
Ġprocess ed
Ġtem pl
ĠSu per
hy d
i ological
t r
Ġvary ing
io x
ĠInt eg
C P
Ġco operation
od ed
ide o
Ġoffic ers
ĠSaf ety
Ġsil ver
ĊĠĠĠĠĠĠĠĠĠĠĠĠĠĠĠĠĠĠĠĠĠĠĠĠĠĠĠĠĠĠĠĠ ĠĠĠĠĠĠĠĠ
ĠH all
Ġab normal
ĠG rand
ĠFore st
Ġev il
Ġcere mon
w orking
or ic
T ra
Ġpar agraph
Ġv an
ĠPl ay
Ġen comp
it arian
ig an
Ġrec over
ur is
Ġreport ing
Ġh oles
Ġqu ery
D S
Ġrare ly
H ist
ĠSe cret
Ġflow er
ĠOx ford
Ġcom plications
Ġloss es
Ġmig ration
Cl ass
Ġt ick
Ġprinc ipal
F A
Ġelim inate
Ġre verse
Ġcover ing
Ġscen arios
Ġint est
ign ed
Ġha ven
Ġreason able
Ġbi as
Ġprof it
Ġ ;
Ġsent ences
Ġaccom pan
Â ·
Ġcop per
Ġcre am
ib er
n als
Ġtele vision
Ġr oughly
ĠRes ources
ĠD ou
Ġrec all
Ġtax es
ern el
Ġabs ence
Ġcent re
ĠE p
yn c
ĠF und
pre ne
fil ter
Ġseem ingly
Ġpack age
Ġcomp ound
Ġper ceived
Ġdom inant
Ġclaim ed
Ġcommit tee
ĠZeal and
ĠEngine ering
arch y
Ġf ault
Ġcomm ission
Ġhard ware
f eed
Ġfl avor
ĠT om
Ġphys ically
Ġembra cing
al og
ment ation
Ġtra ce
peut ic
Ġis lands
Ġaccur ately
ĠAl ice
Ġor bit
Ġconsum e
ĠB ill
Ġcollect ions
Ġfunction ing
Ġpregn ant
Ġmut ual
Ġc oding
ĠS up
E very
Ġd il
ep ing
r ance
Ġref lection
Ġsus cept
Ġrad ical
Ġc ab
re prene
Ġbal anced
ĠCon sequently
Ġv en
Ġcre w
Ġvari ation
Ġmem or
= (
ĠChrist mas
in cluding
Ġt ip
os h
ĠN um
ĠNet work
ĠL ead
Ġf ing
Ġminim al
ch ain
Ġdis h
ĠH T
ĠInd ians
Ġfour th
ĠOr ig
Ġlog ic
Ġemb ark
Ġcon qu
Ġflow s
ask a
Ġconfirm ed
m iss
Ġed ition
Ġl ists
ĠAg ency
Ġar rest
f ound
Ġhard er
cycl op
Ġloc k
ĠOn line
EC T
Ġhead s
Ġrequest s
Ġconscious ness
Ġo v
us cript
B ecause
Ġdesign ing
ocol ate
Ġwhe el
Ġinvestig ate
Ġto w
Ġbre aking
Ġflex ibility
Ġn odes
g a
Ġgra in
Ġsou l
Ġch am
Ġref erences
Ġinf o
Ġexam ined
ĠM ove
he imer
Ġquant um
ig ue
ĠH ill
ĠSw ed
Ġf o
re ction
P L
Ġb att
Ġwond ered
ens ed
Ġver tical
ul pt
ĠOrgan ization
ers ion
Ġvibr ant
Ġflex ible
Ġd uration
Ġopp osed
Ġr ational
Ġl ake
ĠE qu
c ut
N ext
ĠL im
othe rapy
ĠTh ree
ri ze
Ġher self
cs v
ĠM er
em b
al ities
Ġlight ing
ĠF act
ĠA R
ĠN orm
Ġy e
com mon
Ġparam eter
Ġb row
ru it
hem a
ĠB al
Ġauthent ic
Ġphr ase
ĠH osp
Ġch lor
Ġmount ains
Ġcontribut es
re ams
ab eth
Ġgrant ed
Ġlibr aries
C ons
Ġfish ing
Ġscre ening
Ġb ag
ĠL ittle
ĠCont in
et ary
Ġsurpr ise
ĠD en
ant ed
Ġsuper ior
Ġacqu ired
ĠAut hor
Ġmanif est
co very
Ġro se
Ġsp ark
Ġhaz ard
Ġant icip
Ġcall ing
ic y
se x
Ġprob ability
Ġcal ories
Ġresearc her
Ġachie ving
Ġcur ve
Ġdet ected
ĠC le
Ġdel ivered
Ġwor ship
Ġp ond
id ation
Ġben e
Ġmin eral
Ġgrow s
J ust
Ġtem por
Ġlo op
ur a
Ġsens or
ĠP lease
Ġclass ical
Ġf ra
Ġlands capes
Ġex ceed
Ġpe ers
Ġdo se
I O
Ġsav ed
Ġnum er
ut en
Ġsc ulpt
Ġtem ple
Ġpre ced
ĠP oint
Ġext ension
Ġcompet itive
Ġprop ag
Ġphenomen a
ol ar
Ġmotiv ation
Ġsong s
. ).
Ġglob e
ĠP olicy
Ġappe al
Ġdem ocracy
D ef
Ġinf ant
Ġabs or
Ġund ers
p ie
Ġvis ited
ir ms
ĠF igure
clus ions
Ġe ase
ĠRead ing
Ġbi om
ven ile
Ġdiam eter
Ġdis hes
Ġisol ated
per or
Ġcl othes
et a
ĠPract ice
ĠAdminist ration
ĠHe b
Ġcool ing
ĠC ross
Ġdeterm ining
u is
ost on
am ps
Ġtown s
čĊ čĊĠĠĠ
Ġcopy right
Ġbene ath
Ġpass word
ĠAss ess
th rough
Ġexpand ed
Ġc as
Ġdeterm ination
raint s
Ð ½
Ġpand emic
Ġadvance ments
ĠJ ul
ol n
m ask
Ġaltern atives
ac ent
Ġsur ge
Ġst ations
ĠP akistan
le ft
Ġenh anced
Ġne ural
Ġsuff ered
Ġcomp os
ĠConn ect
Ġf rust
Ġtem porary
ogen ic
pt ic
T able
Ġg ast
rou d
ĠL ow
Ġchem istry
p ower
per m
un ct
x y
Ġcontext s
ĠAng el
Ġvers us
Ġman ager
Ġhabit ats
ĊĊ Ġ
Ġra ising
ĠWind ows
o ons
Ġdis ability
Ġbre ed
ĠM oon
r in
ad der
ĠWith out
ang er
ap ed
Ġl osing
Ġa est
Ġgra ins
Ġstake holders
ĠDist rict
av ed
Ġbl ank
Ġor dered
clud e
ĠO bs
Ġelse where
Ġke ys
Ġeld er
' ))
Ġg athered
Ġwhe at
f ix
Ġun ity
Ġvis iting
Ġl es
m ath
ĠD own
Ġh ier
Ġsub mit
pro duct
ian a
O W
Ġl uck
Ġhapp iness
k ind
Ġd rag
Ġad olesc
qu ir
ad vant
Ġearl iest
Ġhe nce
Ġaddress ed
Ġhorm one
Ġexc ited
Ġtrib es
ri z
ĠC rit
ĠF our
cre en
Ġsudden ly
ĠR oad
Ġcontroll ing
m ail
Ġex haust
ĠI D
N ote
ic ular
on ent
roll ed
Ġt elling
Ġag ed
Ġcon j
Ġcolumn s
ĠSp irit
Ġac ute
Ġed ges
Ġdirect ions
Ġas c
Ġt ropical
ou red
Ġcount less
Ġpar ad
Ġs aving
Ġvo ices
Ġact ing
ĠM ath
Ġm ine
em a
Ġhunt ing
Ġse at
Ġt error
ric ts
ĠP ath
Ġbu ff
ĠS ir
Ġb omb
C o
o ids
Ġman ual
Ġview ed
Ġsatis fact
Ġun ion
N S
ĠH arv
Ġdis ag
ĠC ast
ĠL og
C A
r h
ĠArt icle
Ġdec ay
ar ation
m al
Ġstop ped
ĠR ock
T ER
on ly
ĠCent re
b ooks
v i
Ġoccur ring
Ġch ose
AT ION
Ġf ed
c ult
Ġintegr ity
Ġst ones
ĠW all
Ġcandid ate
ĠT op
Ġcomb ine
ĠV en
ĠJ ac
Ġprefer red
ann ed
Î ±
as ant
ms g
con text
Ġtherm al
Ġsc r
Ġnit rogen
eg a
Ġp estic
omet ric
ĠH or
Ġleg acy
u i
p df
i ability
iz abeth
Ġg ently
Ġcl uster
Ġachieve ment
ĠL ight
Ġstre ets
Ġmag ic
p i
ex ist
Ġfar ms
Ã ¤
Ġph osph
Ġsh oot
In f
Ġfall ing
Ġremov ing
Ġt ales
Ġt ight
Ġequ ipped
m ond
n on
Ġsp atial
Ġamid st
Ġgra des
Ġbacter ial
Ġatt ributes
ĠPro p
Ġinvolve ment
Ġhigh lights
N e
Ġv ig
Ġquant ity
Ġgen u
ĠC ase
t xt
Ġdef initely
ĠC E
Ġast hma
cent ury
ci pe
Ġeven ing
Ġille gal
Q L
b est
Ġpay ing
lik ely
ĠM ach
Ġdut y
ch ar
ĠP ass
f ields
Ġwe aring
Ġvit amins
Ġsu it
Ġdirect ed
Ġc ort
Ġelect ed
reg ation
Ġcal m
Ġdiscipl ine
Ġpoint ed
iox id
Ġsepar ated
Ġnutri ent
Ġmag ical
du ate
Ġpl ain
z heimer
AT E
ange red
Ġaut o
om er
W elcome
im m
im ents
C R
in ition
ĠU r
ĠT able
ac ies
ir th
Ġdiff er
Ġwrit es
ĠKore a
ĠRet urns
Ġtrig ger
ct ors
Ġdiv ine
Ġmist akes
Ġbreak s
ĠCo ast
Ġp d
ra q
un a
Ġowners hip
Ġsp an
Ġmanufacture rs
a fter
pl oad
Ġord ers
Ġphilos oph
S I
Ġphys ician
ĠDig ital
ĠD ar
ĠM D
Pe ople
ĠS und
epend ent
Ġl aser
ĠColumb ia
ĠAv oid
Ġd ictionary
b uild
Ġsole ly
Ġsh ock
ĠW ay
Ġcour ts
Ġrespons ibilities
oc ity
ĠP et
Ġse gment
Ġf lying
H A
Ġplant ing
Ġconcent rations
inc oln
od er
Ġfat ty
O ut
Ġn om
pred ict
Ġlog ger
Ġpath s
v als
Ġ ?
Ġsac red
b el
comm and
Ġf ats
ĠIm m
Ġgent le
Ġl ip
ĠD om
et ing
Ġse cre
Ġg ases
Ġdo ors
ĠC ir
un icip
ĠF ire
Ġper pet
iv ation
ĠC ode
Ġarg ued
Ġhealth ier
Ġin clusive
Ġal ert
ĠG r
ar ters
Ġto ys
Ġneut ral
Ñ Ģ
Ġperfect ly
Ġd rought
Ġadd iction
lay er
Ġp airs
du ction
is ely
ĠSup reme
Ġdram atic
ĠCons ervation
u rolog
Ġdeg rad
Ġspec im
bl ock
o ys
Ġcl ock
Ġch air
ĠM aster
il a
Ġmet als
z one
[ -
ĊĠĠĠĠĠĠĠĠ ĊĠĠĠĠĠĠĠ
Ġfin ish
Ġcat tle
Ġbiod iversity
Ġro yal
spec ific
t ag
Ġm ic
ĠA L
S m
Ġinc ident
Ġm g
ac hers
m ade
$ $
Ġobst acles
Ġpan els
A re
Ġdi pl
Ġanalys es
ĠI ss
Ġsl aves
Ġch ap
Ġf ought
ric ted
al m
" ],
ĊĠĠĠĠĠĠĠĠĠĠĠĠĠĠĠĠĠĠĠĠĠĠĠĠĠĠĠĠĠĠĠĠ ĠĠĠĠĠĠĠĠĠĠĠĠĠĠĠĠ
ou l
S ource
Ġt ough
b its
ĠY es
Ġcharacter istic
O M
Ġrecogn izing
ex ec
Ġspok en
Ġcardi ovascular
lab els
Ġt one
Ġn ice
Ġsub t
Ġt on
ĠPre vention
Ġen orm
Ġplan ets
Ġent ering
Ġm ock
van ia
ES S
ĠHe art
Ġwor st
ĠP en
ĠFace book
Ġsl ave
iss ance
Ġpl a
Ġimag ination
ĠF il
are t
Ġman uscript
ĠInv est
pt om
Ġpractition ers
friend ly
Ġad vers
Ġsp ots
Ġcandid ates
er ge
Im age
f s
Ġbehavior al
Ġestablish ing
ĠF uture
ĠPro g
ĠInd eed
ĠC r
Ġcl ar
erm an
be an
Ġgraph ic
Ġmod erate
ĠProt ection
Ġprior ity
Ġexpand ing
Ġnot ion
Ġh urt
Ġstay ing
Ġaud iences
Ġat oms
Ġcont ents
aw are
ĠScot land
E ng
Ġconclud ed
ent er
Ġcharg ed
Ġcl ust
ĠCh all
g reen
sy l
end ar
Ġcomb ining
R ep
hav ior
rop ri
Ġp ion
d irect
iv ate
ĠL ee
Ġadapt ed
à ¥
elt a
Ġavoid ing
Ġo m
Through out
ĠM ah
Ġident ities
b as
Ġst ood
Ġex port
Ġint ention
ĠD utch
pl t
op her
E X
R et
Ġold est
Ġtrans mit
Ġexp ed
Ġpredict ed
Al so
iv a
Ġw at
eng er
Ġsettle ment
P ub
arn ess
u gg
Ġpopular ity
Ġto b
Ġpar ams
ost er
ĠE mb
Ċĉĉ ĉ
ys ical
H S
Ġdri vers
Ġcust oms
Ġt ong
ĠI de
Ġev ident
Ġlung s
ĠSupp ort
Ġcommunic ations
Ġgra vity
ĠHeb rew
Ġbe es
Ġw ise
Ġg est
in v
f ol
ibl ical
l at
ert y
Ġlect ure
Ġw elfare
**** ****
P y
m ode
Ġpat ience
ĠPal est
ou nder
et ts
ĠPl ace
Ġenter pr
z ym
Ġw ider
Ġaccompl ish
ĠT ext
ĠB ooks
Ġiniti ative
ou ds
Ñ ģ
ĠE ffect
Ġfl ash
Ġrest aur
ard ing
Us ing
Ġregard ed
M ay
ĠM S
Ġocc as
Ġg if
Ar t
Ġown ed
ĠAl zheimer
Ġeng ines
Ġc otton
s we
Ġgra b
ĠB oston
Ġqu arter
Ġlast ing
Ġste am
Ġreflect s
ans as
ĠMin ister
Ġmed itation
Ġregul atory
Ġstrugg les
Ġprom ising
Ġfil ms
as ures
ĠHe ad
j ud
ĠBe ing
Ġrestrict ions
Ġs elling
ili pp
Ġdel icious
ĠB attle
Ġcontinu ing
Ġstri ke
ĠJust ice
iz z
ce ive
Ġtum or
rou ps
ĠUn like
Ġhosp itals
ĠAs k
Ġreve als
Ġphotograph s
b ot
E F
ple x
Ġestablish ment
ĠP ur
Ġmeet ings
Ġconsist ently
Ġillust rate
app ed
C re
ur ches
Ġm ouse
Ġbu ying
ĠEd ward
Ġag ing
Go ogle
ĠOf ten
Ġcry pt
Ġanal og
Ġs pl
Ob ject
w orth
Ġantibiot ics
` .
s ign
Ġfem in
Ġatt itude
Ġt ric
ĠL y
Ġf ur
p ub
ĠL G
ac cess
Ġrel ie
d rop
istic ated
w an
Ġreview s
ĠS and
ĠC all
agn etic
Ġdev ast
Ġir rig
Ġad verse
Ġto m
Ġsh ares
Ġtob acco
p ay
aterial s
C omm
R L
Ġj uris
ĠJe ff
Ġillness es
ĠWrit ing
G e
Ġpol ar
ĠAg ain
Ġsci ences
om eters
~ ~
ĠK en
Ġconsum ed
tain ing
ĠC at
ish op
ble m
ber ry
Ġathlet es
Ġmother s
eg u
Ġnovel s
ĠN ov
ĠS elf
Ġjud gment
im a
ach us
Ġdist ances
Ġcelebr ated
ig ious
Ġbatter ies
ĠI raq
Ġbelie ves
Ġh all
ĠWrit e
Ġexec utive
A ss
Ġthera peutic
Ġthreat ened
Ġun likely
Ġ[ "
Ġtra cking
Ġvacc ines
r ink
Ġapp s
ĠN ext
Ġwe igh
Ġaccept ance
ist ant
erc ury
: :
Ġadapt ation
arm ing
ĠI V
Ġcarb ohyd
Ġconvers ion
Ġc ord
et he
Ġent reprene
Ġw ars
Ġtransform ed
Ġfu els
ĠEx p
ĠB ul
Ġdirect ory
W rit
ĠT O
h ire
dat aset
Ġpr ime
ĠIm pro
Ġassign ment
ĠE mer
P D
Ġexist ed
ĠCam bridge
Ġsupp lements
Ġcon d
Ġscen es
su pp
Ġconf usion
Ġevery where
ĠL in
un it
ĠC ard
ĠQue en
Ġlif etime
Ġdiscover ies
Ġp ose
Ġmembr ane
r t
Ġpriv ile
ĠSur vey
W here
Ġinput s
u ate
ĠPer haps
Ġprogram me
Ġen um
Ġent ities
Ġ{ "
it ting
syl vania
e vent
Ġfat igue
Ġhy gi
L esson
Ġac res
Ġthr ive
dev ice
Ġrein for
Ġinflu ential
Ġjour nals
Ġcons ent
ĠHosp ital
Ġstat istical
Ġpay ment
part s
Ġth reshold
ĠSh ould
Ġcrit ically
as hes
Ġprom otes
Ġc odes
Ġer u
st yle
Ġapplic able
Ġchick en
Ġstory telling
Ã ¢
Ġs ending
) ),
Ġess ence
ĠE conomic
< /
ĠFor ce
Ġlog ical
K E
Ġassemb ly
N et
ne cess
Ġto ken
c ule
Ġcompl iance
ĠI T
o ice
Ab out
re place
Ġparticip ating
Ġdemonstr ates
is ition
f ting
t x
Ġprec ision
Ġaccompan ied
cl os
Ġgo ver
L og
R el
ĠB u
ĠL incoln
P ath
Ġaddress es
usal em
Ġcomprehens ion
Ġconver ted
Ġmed ieval
Ġenthus i
loc al
ĠF ather
Ġun like
c opy
ĠH indu
Ġfore cast
Ġd ating
ĠThe ory
ne g
el ing
ĠE conom
ĠEl izabeth
Ġcy cles
Ġcou rage
Ġhousehold s
Ġbur ied
Ġjoint s
Ġdefic iency
Ġre const
ER S
Ġex ch
Ġar med
ĠLe vel
g rid
Ġleg end
y er
o a
Ġch ocolate
ĠL i
Ġmos quit
Ġc ure
J ohn
Ġreg ister
Ġcollect ing
ĠDirect or
Ġharm ony
Ġcomp ost
f oot
ut her
sy stem
Ġrest ore
Rem ember
Ġd airy
ĊĠĠĠĠĠĠĠĠĠĠĠĠĠĠĠĠĠĠĠĠĠĠĠĠ ĠĠĠĠĠĠĠ
ĠN OT
Ġconfig uration
er ator
ĠOh io
az e
Ġsett led
Ġc v
Ġrequire ment
Ġpow der
Ġhypothes is
Ġdeb ates
P r
Ġju ice
Ġveget ation
Ġpress ing
ain ts
Ġpublic ations
t otal
Ġbe at
Ġdr inks
Ġcons erv
ediat ric
ol i
ps y
e val
ĠF ield
Ġopp osition
ĠR h
Ġp roud
Ġinequ ality
ĠD id
o is
man n
Ġexplain ing
Ch ild
Ġisol ation
Ġto mat
Ġre aches
Ġsoph isticated
Ġgod s
v ari
Ġrel ate
Ġbl ess
Ġposit ively
Ġl ymph
Ġk illing
Ġbo at
Ġant ioxid
Ġhorm ones
Ġdisplay ed
ĠL ine
Ġeth ics
Ġw al
Ġreput ation
Ġcorpor ate
el ve
Ġpray er
Ġexc ite
er b
ĠMich igan
iv ities
) |
Ġest ate
Ch ar
Ġin cent
ĠDiv ision
Ġwork place
Ġcor on
Val ue
Ġpre cious
Ġenjoy ed
est ock
ag en
Ġl icense
ĠV e
Ġwith draw
Ġvar ied
Ġsp oke
Ġequ ations
ĠHaw ai
it ate
ĠW al
Ġres c
ĠMus ic
Ġsp ray
Ġrev ol
Ġw ra
Ġclass ification
al so
as m
Ġutil ize
c at
gra de
Ġconsider ations
Ġsuggest ing
e em
Ġoffic er
Ġas ide
ĠM ind
Ġpub l
Ġp ill
st op
Ġsav ings
Ġgard ens
Ġaut ism
hem istry
U se
ur able
ell er
Ġwork er
Ġy es
chn ology
Ġreflect ed
m em
ad el
Ġcomple ment
ob ile
% ,
ĠGeorg ia
IS T
M D
Ġfore ver
Ġthor ough
sc ore
u an
Ġport ray
in ator
Ġquant ities
th ritis
ane an
C ount
Ġcl ay
Ġclass ified
Ġde ploy
ĠPh ot
Ġassum ed
ĠSchol ar
X X
az z
Ġz ones
Ġl on
u v
ĠA ff
` ,
Ġaccording ly
Ġspread ing
end ment
mat rix
Ġpain tings
Ġinter ior
Ġpost s
Ġan ger
Ġfit ness
P T
Ġout door
Ġcur rency
Ġsuggest ions
W id
Ġassum ptions
Ġappl ies
Ġse vent
Ġgover ning
n atural
Ġrecycl ing
Ġimmig rants
ĠAm azon
g r
Ġancest ors
e fficient
oper ative
achus etts
reg ular
acks on
Ġstreng ths
Ġviol ent
Ġdis advant
Ġtext ure
Ġorient ation
p arser
ĠOb ject
Ġem erge
Ġher b
if ice
Ġc ub
ge bra
d iff
id ers
ĠY O
Ġeconom ics
ce ans
ĠAr ctic
Ġaccount ing
st ore
st ars
Ġh am
Ġlik elihood
og s
Ġcolon ies
Ġb orrow
ly mp
Ġsh orter
." )
ulum i
Ġmin i
Ġpros per
bor ne
ĠSt ar
Ġkit chen
Ġp ets
' ):
Ġign ore
Ġlow est
Ġc rown
Ġpart ial
Ġconv in
Ġinhabit ants
B ack
Ġover view
ĠPort ug
ĠC arl
ĠHel p
ĠIn cre
b acks
Ġtail ored
comm un
dep th
Ġsched ul
Ġo l
Ġneur ons
ste in
u its
ĠJer usalem
he nd
Ġnutrition al
ĠPenn sylvania
Ġgen ome
Ġdist ant
Ġen forcement
ĠPl us
e ven
Ġf ires
Ġor th
Ġhol iday
p u
Ġserious ly
F T
Ġground s
ĠStand ard
Ġâ Ĩ
E G
Ġm ature
ĠSm all
ut ing
Ġagg ressive
Ġreven ue
ol s
Ġappoint ed
amm a
Ġp ace
Ġleg it
p in
Ġc ow
ig er
er ally
ĠD C
Ġrepe at
ĠS ection
ch ron
Ġfeat uring
Ġsub tle
Ġb are
Ġemploy ee
F rame
Ġh at
Ġperson nel
Ġvict ory
ĠC ub
ĠC ost
Ġbe ans
Ġbr id
h igh
Ġre cre
Ġpers u
ĠTest ament
ĠIm age
af e
Ġut ility
as ma
Ġbra ins
Ġthan k
Ġind irect
Ġpre y
Ġill um
it ches
Ġharv est
Ġbas ically
Ġstri king
Ġsche me
Ġur ine
Ġdevelop ers
Ġcan cers
D is
Ġcal c
en za
Ġfin ance
Ġsurround ed
Ġl oyal
'] .
Ð¾ Ð
de bug
fun c
Ġe ars
ĠR ight
ĠA ction
Ġsequ ences
f ire
K e
o z
Ġan throp
d iv
ĠIs lands
Ġrec ording
Ġcop ies
Ġdat etime
Ġselect ing
Con fig
Ġinteg ral
V I
k er
St ate
Ġhome work
Ġmov ies
Ġvir al
Ġst ack
s ample
OR D
Ġprec isely
Ġstrugg ling
Ġcaptiv ating
Ġn ull
ol er
Ġb orders
Ġmedic ines
ĠR am
The n
ĠGree ce
Ġcirc ulation
ĠMuslim s
ĠWith in
Ġdesign ated
Ġpain ful
Ġf r
Ġb in
Ġreplace ment
Ġd raft
ira ble
v in
ĠColor ado
row th
Ġking dom
Ġrow s
e or
ĠH im
Ġp H
Ġnewsp aper
Ġt or
Ġman agers
ĠBl ue
ĠC apt
Ġevol ving
olog ically
Ġsum mar
de c
T I
Ġdisag ree
Ġdefin itions
ig m
ment ia
ĠMed ia
Ġd reams
Ġaccept able
ĠConf ed
at ile
Ġco at
d escription
B ase
ĠE vent
un s
Ġcritic ism
Ġident ical
ĠH um
cle ar
fl amm
Ġteach ings
Ġimp air
ĠTh anks
Ġwood en
st ers
Ġ ion
Ġworld s
! !
h ops
ab out
ĠB ased
ĠAr ts
s ession
Ġl ob
Ġenorm ous
Ġveget able
Ġpen al
Ġsome where
Ġc her
Ġimportant ly
ĠD O
w s
ĠF ar
Ġrele vance
ag an
or rect
ap or
Ġreason ing
k et
a is
Ġt ends
orig inal
Ġ ``
ĠC ON
Ġult imate
Ġpredict ions
ĠSt ory
Ġsect ors
Ġs au
h al
se curity
ater al
Ġsepar ation
Ġdescrib ing
ĠMex ican
Ġsurg ical
Ġg aps
ĠHarv ard
Ġf an
t ains
Ġrest oration
u ce
object s
B M
ent i
Ġb ol
atch ing
Ġsaf er
Ġassoci ate
Ġt ab
ĠW is
Ġnut s
st atic
ĠP age
Ġbas ics
Ġthor oughly
Ġbackground s
Ġbox es
Ġsc ales
ruct ive
ĠPar liament
ĠE r
b ell
f are
Ġch a
il er
rain ed
ĠMean while
Ġg ate
Ġt ang
Ġqu e
vis or
Ġcap s
Ġcollabor ative
Ġn est
Ġcele b
ĠD rug
Ġgather ing
Ġbeg un
Ġs ale
Ġnavig ating
T O
P lease
ĠN ame
Ġshif ts
ĠAn cient
cyclop edia
w a
Ġr anges
ser ver
ĠP arent
Ġvar ies
Ġsub sc
op l
ic ul
ĠP rom
ill ance
Ġconst raints
Ġdistingu ish
ĠMass achusetts
ĠC P
S L
Ġsod ium
Ġfing ers
p erson
ĠP u
Ġ< =
! )
Ġindepend ently
Ġevolution ary
ĠOther s
F F
Ġvirt ually
'] ['
Ġt elesc
oc a
Ã ±
Ġt ale
Ġfant astic
Ġpres ervation
ad ed
In put
Ġlay out
Ġsus pect
Ġmodel ing
ĠViet nam
Ġim g
Ġh al
br is
ĠP ain
Ġsc ar
Ġbus y
s end
Ġproduct ive
at i
Ġstre ams
Ġreprodu ctive
Ġassess ments
Ġf raction
Ġcomm ands
ĠPr int
he a
ment al
ĠSo ft
( -
Ġs ister
Ġd ies
Ġor ange
Ġse am
a ver
add ress
Ġdist ricts
im p
ere n
Ġminor ity
ĠT H
ĠV iew
oc c
ĠCult ure
ĠÂ £
Ġtw ist
Ġfund ed
F l
Ġres erved
ĠJ ack
Ġtra ding
ĠRe cent
Ġgen re
dim ensional
Ġpreval ence
id al
Ġbarri er
ian ces
* -
Ġd ress
ĠPhys ical
Ġg ift
ĠPh ilipp
Ġtre m
Ġper mit
Ġinf ants
ĠH aving
Che ck
S pec
ag g
à ¸
Ġdesign ers
ort ion
Ġembra ce
ect or
Ġmyst ery
Ġtempl ate
) ):
pro fit
ra ine
Ġcomp at
ount ered
Ġexec ution
on ame
Ġgra ce
enn y
Ġdem ocratic
ĠM ot
ĠR est
Ġcon clusions
Ġfact ory
ne um
ro le
ĠTr ust
Ġtrans mitted
ane ous
Ġsaf egu
Ġwas h
Ġgr asp
out heast
E ach
b ow
ĠSt an
ook ed
Ġpropos al
Ġin clusion
Ġpartners hip
ĠU V
Ġtem p
Ġoccasion ally
Ġtravel ing
ĠO lymp
Ġrepresent ative
semb ly
Ġinvest ments
c in
Ġreflect ing
Ġb uck
ra v
ef ul
or i
de lete
Ġdiv ide
cipl inary
Ġcomp elling
Ġo ils
ak a
Ġrep et
or ical
Ġenc ountered
Ġche ap
Ġbur den
T wo
ĠGu id
Ġf isher
Ġcomp aring
em ail
Ġread ily
ĠCult ural
ĠG ulf
Ġfil ters
Ġh arsh
Ġprec ip
Ġun necess
Ġro oms
p ow
Ġamong st
P ost
ĠLG BT
Ġt ape
Ġpar ks
Ġvess el
eng ths
ĠWh ich
Ġcontain ers
rep oname
ĠE nt
Ġdro pped
Ġcr imes
t w
ĠF red
b u
ĠC lick
Ġdim in
ĠD oc
Ġgovern ance
Ġwe ights
Ġadopt ion
j i
ĠS qu
L ike
pare n
Ġchrom os
i ations
ph ones
Ġpush ing
ĠTreat ment
Ġr h
ã Ĥ
Ġd type
Ġsh ore
Ġregist ered
Ġd ense
Ġbelong ing
Ġtoler ance
Ġp el
lish ing
ĠNav y
zym es
Ġimp ressive
for ward
Ġent ity
Ġreg ulate
Ġacknow ledge
y es
ĠN ob
aut h
ĠDiff erent
G S
Ġanaly zed
Ġse es
ĠImp act
Under standing
Ġprov ince
ĠS everal
ĠM id
Ġheav en
Ġdest ination
Ġche ese
Ġdigest ive
ri um
ĠC H
" ).
form ed
Ġp ix
is ons
pl ed
ĠU k
Ġh arness
Ġdis sol
zy me
Ġexcite ment
it err
ĠExpl oring
P O
R equ
Ġhy brid
s ervice
Ġinnov ations
ĠConf erence
Ġuncertain ty
Ġdiagn ostic
p ng
Ġm apping
ĠB ang
Ġso ils
Ġc ough
Ġann ually
Ġre nt
ĠCh oose
ĠV an
Ġopt ical
Ġvis its
Ġsu g
ig ration
f all
Ċ ĊĠĠĠĠĠĠĠĠĠĠĠĠĠĠĠ
Ġso vere
ĠAgricult ure
F ig
ĠFrancis co
on ing
Ġacc ord
Ġpass es
Ġg ly
Ġm sg
t rue
Ġtrans f
ĠC S
ĠAlex ander
s cience
Ġsens ory
cons cious
ĠUlt imately
Ġser ial
ĠT raining
Ġsampl ing
ateg ory
Ġoutbre ak
Ġpl acing
ous es
G l
s ur
get s
Ġindic ating
ĠComput er
ill ion
result s
st d
St ring
Ġfre ely
ern ess
Ġsever ity
Ġprov ision
Ġoff set
sh aped
Ġpersist ent
Ġs ulf
Ġ ..
Ġc ater
ĠC orn
ĠC opyright
Ġpro long
ĠV i
] ))
Ġd jango
es ium
Ġen de
Ġpurs ue
Ġsc al
Ġpartic le
Ġart if
Ġlab our
ĠPr im
Ġresist ant
An y
gra duate
ustain able
g ame
ĠT own
Ġrout es
ir al
d ated
ĠInd ones
Ġtrans actions
ĠSund ay
Ġg um
ĠM A
Ġinv ention
Â ®
ir s
Ġcent ered
Ġadvis or
Ġsub mitted
Ġb ool
Ġdi ets
Y es
Ġcra ck
D R
Ġe ager
t f
Ġgener ating
Ġsm ell
Ġspeak ers
d ig
iterr anean
Ġp od
ĠPro duct
Ġinteg rating
ĠRe qu
os ity
pro t
se lected
Ġabsol utely
Ġre vers
( _
Ġoccup ied
Ġgram mar
Ġrespect ive
Ġreg ime
Ġre ign
akes pe
ĠL ew
P s
Ġp add
Ġelect rons
Ġb ub
Ġhyd ro
Ġn n
P oint
Ġop ens
Ġcolor ful
Ġresol ve
Wh o
Ġsurv iv
Ġdiscipl ines
Ġent it
A c
Ġb at
Ġsh oes
paren cy
Ġspace craft
Con n
ugh t
ĠReg ular
Ġc ited
Î ¿
Ġsp inal
w as
Ġmen u
m ult
ĠMicro soft
A tt
Ġunder ground
ore st
Res p
Ġdis k
ĠD ictionary
ĠD ue
ĠD raw
Ġmor ph
ious ly
p g
Ġshould n
Ġbe ars
ra ham
Ġpresc ribed
Ġpurch ased
Ġdist ract
Ġexp enses
olog ic
Ġtrans plant
Ġmer ch
ok ed
ĠN umber
ĠJ ackson
Ġdel icate
ĠWild life
h uman
Ġsearch ing
Ġch urches
ass ium
C M
ĠAn aly
Ġdevelop s
ĠHer itage
ĠLabor atory
Ġphot ography
Ġph ones
Ġsk illed
con v
Ġatt ending
Ġcivil ization
st orm
Ġdispl ays
Ġliv estock
Ġas h
l ambda
Ġplant ed
AR T
Ġterrit ories
Ī Ĵ
Ġneighb ors
Ġdim ension
Ġapparent ly
t im
Ġc ig
ĠP DF
Ġbound ary
Ġl oud
om ous
Ġobserv ing
Ex pl
Ġvolunt eers
Ġpil ot
ra it
Ġdel ight
Ġinvest ors
ĠH a
ac le
Ġtong ue
ĠT urn
Ġn urt
Ġliter ally
ĠG all
Ġw elcome
ĠM ur
Ġin ev
ph abet
Ġcut s
Ġlingu istic
at oes
ay a
ac hel
ĠL os
Ġhygi ene
Ġb ite
Ġdut ies
Ġle an
Ġcolon y
u um
Ġmagn itude
Ġemb ry
Ġinstall ation
Ġoverwhel ming
ĠEx ception
Ġrelig ions
ĠSh are
Ġhoriz ontal
ĠBet ween
Ġswim ming
h ome
Ġcl ouds
Ġrese mb
Ġpl ug
ĠL ocal
ino is
Ġattract ive
Ġpup ils
Ġg ear
Ġshel ter
Ġm unicip
Ġgl ac
mod ule
ic ations
Ġde bris
re ated
Ġt ort
Ġde als
set tings
( {
Ġin ch
Ġdistinct ive
in ery
Ġembed ded
Ġsystem atic
ĠCent ury
Ġb ags
ĠM rs
Ġte ch
ater nal
Ġbe ach
cont in
Ġsynt hetic
ĠW ikipedia
Ġdocument ed
ĠSol ar
Ġju venile
Ġshe ets
rib le
Ġpres erved
aw a
akespe are
Ġacc idents
ct u
t ask
ps on
er ver
ĠCol on
Ġpen et
Ġincorpor ated
Ġsym b
C al
Ġcell ular
og ens
Ġconduct ing
ig ation
b ound
Ġmetabol ism
Ġde er
ĠSe lect
ĠN eg
plic ate
Ġret ain
ĠS aint
ĠE ll
Ġprev ents
ĠEn ter
! âĢĿ
Ġdevelopment al
Ġequ ity
Ġbro ke
Ġbot tle
Ġf et
Ġs el
W ell
Ġteac hes
Ġinv asive
ĠDisc uss
Ġth roat
Ġint r
-------- --
Ġhighlight ing
Ġengine er
Ġmult ip
Ġth yroid
Ġput s
Ġguarant ee
b t
ĠS on
Ġ- *-
) ||
Ġconsum ing
loc ation
ĠK enn
ĠTem ple
ĠDan iel
, -
ĠO tt
Ġrot ation
Ġmamm als
v as
ĠAnd rew
Ġhaz ards
il st
om eter
Ġl akes
im um
b ul
C ase
b our
o an
Ø §
S W
Ġr ib
Ġend ing
E m
com put
Ġoper ational
Ġsatisfact ion
ð Ł
ĠBi ology
Ġre ef
Ġen rich
ĠNever theless
ĠC lean
Ġr ough
ĠB ureau
ĠP ut
Ġdocument ation
Ġrecip es
j a
Ġal tered
f ront
Ġver te
Ġspecial ist
in er
p any
Ġspeak er
Ġrul ed
B A
ĠMed iterranean
C ON
zer os
Ġelder ly
Ġsuscept ible
w all
or ters
end ers
ent ry
ĠWilli ams
Ġatt ribute
R ec
Ġinc idence
Ġsu icide
Ġtack le
res ource
Ġdis comfort
Ġinter connected
ĠAl tern
Ġw ings
Ġso y
Ġresident ial
Ġstru ck
Ġbul lying
ru b
Ġpl ates
Ġdram atically
adel ph
Ġcitiz en
Ġcampaign s
Ġpun ishment
ond ay
Ġatt ributed
il itation
ĠPr inc
eng ers
Ġspe eds
Ġacqu ire
Ġutil ized
ĠBudd h
Ġvel ocity
Ġabsor ption
ĠMin istry
Ġtransfer red
Ġtot ally
Ġw ing
inet eenth
ou rag
Ġsurround ings
st ud
Ġsym ptom
est one
Ġcir cul
ĠG iven
Ġ> =
tern oon
per t
Ġhistor ians
Ġinsp iring
ĠL ater
Ġcos m
T R
ĠC reek
Ġb ought
Ġarr ival
Ġth row
Ġreturn ing
b ury
Ġsleep ing
ĠK ids
Ġcontin ent
p a
s v
Ġo k
Ġgold en
v y
ĠApp le
ĠApp ro
D ate
ar ium
form ance
Ġrest ricted
ĠKore an
Ġdes k
Ġl oose
Ġvill ages
s rc
ĠN O
Ġ' '
Ġsed iment
Ġne urolog
Ġout line
Ġob j
ik a
Ġsurve ys
Ġkne e
Ġinter section
Ġconsequ ence
Ġd ried
ĠO S
ush ing
Ġpred om
h an
Ġt ill
Ġtransl ated
Ġd iving
Ġst abil
ĠH op
ur se
Ġsim ulation
Ġmob ility
el a
Ġloc ally
Ġelect ions
Ġble eding
Ġ> >>
Ġun em
ĠUn ivers
Ġele ph
Ġtherap ies
ĠV itamin
epend ence
ĠCon vention
Ġge ographical
t ics
Ġo ceans
Ġelev ated
Ġenab led
Ġcert ific
Ġel ab
ĠCh ief
ĠF ocus
ĠL at
Ġcol ored
reg on
x x
ĠE s
Ġworks hops
ili ation
Ġcont rad
ĠA M
Ġo ste
Ġto y
Ġra inf
ĠD ie
Ġaff airs
ast ics
Ġher bs
m ates
ĠP ay
Ġabund ant
H and
ĠR NA
ĠH ence
ir ical
w estern
ot ional
Ġimmig ration
G E
th ur
Ġafford able
Ġset up
ter ior
ĠS us
u ity
Ġref used
Ġend angered
Ġlo an
Ġcount s
oc ate
Ġgenu ine
Ġra ys
Ġimpro ves
â ĸ
th ood
Ġprodu cers
clud ed
ĠTur key
ĠC R
Ġgra y
opt ions
ad or
Ġo vers
ĠC orpor
D L
Ġprogress ive
ĠCol l
Ġst er
Ġemp ire
ĠE PA
L ab
adelph ia
ĠB ol
ĠP aper
st rip
Ġupd ates
iv als
Ġr ide
u ct
ĠA ud
Ġirrig ation
nd s
ĠC ell
ud a
Ġb its
ol ph
Ġnurs ing
ĠSecret ary
Ġh ack
p m
Ġtour ism
Ġc able
Ġcar ries
Ġpath ways
s ite
ĠValue Error
Ġintrig uing
Ġadministr ative
el ly
Ġdesc end
ors hip
Ġcan n
ĠR ather
Ġconsist ing
old s
Ġrac ism
as ets
ĠP L
O s
Ġar thritis
Ġact ors
Ġinterview s
ĠJ am
ĠThrough out
u ction
ful l
Ġflav ors
ĠTur k
Ġabund ance
Ġhop es
d el
Ġexplicit ly
Ġachieve ments
Ġdef ining
ĠAl ways
in ance
an z
Ġmist ake
quir y
Ġf t
Ġcont amination
Act ivity
w orm
Ġb inary
de velop
ry ing
Ġrad i
Ġdist inction
od ox
red it
Ġte ens
He alth
Ġincred ibly
ĠW ales
Ġinfect ious
Ĥ ¬
ã ĥ
F ollow
Ġg ro
y nt
Ġrob ots
om etimes
ropri ate
iz ational
Ġshe ep
gh an
ĠScient ists
Ġemphas ize
ff e
Ġwind s
F e
Ġcultiv ate
Ġb inding
St art
Ġdr ives
iss ipp
Ġattempt ed
" ))
ĠUs er
in als
Ġret ail
Ġunnecess ary
U ser
Ġh ob
Ġer osion
Ġpy thon
h ar
ĠA S
ĠAre a
ĠA T
Ġk g
Ġf illing
Ġde mentia
Ġdi arr
Ġt rick
Ġche cks
Ġst ew
Ġadolesc ents
end a
Ġdipl om
Ġcir cles
Ġinv asion
Ġtyp ing
Ġseason al
Ġst ems
ĠM ic
Ġphilosoph ical
ĠSen ate
ra id
Ġp ipe
Ġentertain ment
M I
ĠM oses
Ġfil ename
ĠAnt ar
Ġj ew
Ġche cking
Ġh ide
og ram
Ġallerg ies
Ġsett lers
. ),
et ed
Ġb ron
Ġevalu ating
b ec
c r
. :
Ġdi ver
Ġassist ant
Ġsem i
Ġappro val
ĠE val
Ġbrow ser
Ġg re
ar ious
Ã ¨
Ċ ĠĠ
hem atic
Ġadvoc ate
Ġam ino
ĠD am
ĠS P
ĠM ajor
it ic
Ġal pha
Ġfunction ality
cl s
B ased
'' '
bre aking
Ġimag ery
Ġhe s
Ġlib eral
Ġreal istic
o op
L ay
Ġen zymes
Ġfac ial
Ġcomplex ities
av en
Ġunder go
ian o
ĠB rain
Ġ( âĢľ
e lect
Ġprotocol s
Ġem it
osp el
ĠO cc
anc ial
Ġcompre hend
Ġsee ks
i op
Ġal umin
Ġcalcul ations
st ic
Ġactiv ation
ell o
B ox
or ient
Ġbe am
ĠR ail
Ġhol y
Ġrainf all
Ġbr illi
oc ated
Ġtra il
Ġdemonstr ating
Ġcharg es
ĠC A
Ġrig orous
plot lib
at tered
Ġreject ed
Ġhe al
ĠEgypt ian
Ġl unch
Ġorgan ize
ĠIll inois
Ġcl oth
p atch
s ome
ans wer
Ġdist ribut
Ġn am
Ġtum ors
ĠN utrition
ess ional
Ġexc av
D ep
Ġt ast
ĠO l
â Ķ
av irus
ĊĠĠĠĠĠĠĠĠ ĠĠ
Ġp iv
log ger
Ġdi agram
b age
ĠPh ilos
W orld
m ers
ri ver
Ġabandon ed
Ġimper ial
n ia
Ġm as
Ġatt ended
ĠGard en
y ard
Ġinter medi
ĠC T
Ġarr anged
M on
Ġv ot
Ġm issions
ĠNe uro
ne xt
W S
Ġs le
ĠF air
ĠE N
Ġrece ives
ran ch
Ġelement ary
ob ic
D et
Ġmulti pl
ang el
Ġv ine
ĠJ ava
Ġarr ive
Ġan ch
c ies
Ġpat ent
_ {
Ġarchitect ural
b urn
ol y
Ġexpl ores
Ġcam eras
Ġgr an
Ġshould er
C N
Ġframew orks
Ġstret ch
Ġar ter
pos ed
ĠSt ill
Ġtw elve
enti eth
Ġshop ping
f ly
Ġland ing
ĠAssess ment
Ġpr ide
ut ical
Ġpat ch
yn asty
Ġcirc ular
b at
Ġcare ers
Ġconf used
ĠH it
om ers
Ġb ind
Ġstra ins
ay lor
Ġmetab olic
Ġsecre ts
if er
Ġdis charge
Ġre hab
ĠB est
Ġintellig ent
Lear n
Ġrhyth m
Ġaf ternoon
i ary
Ġh ung
Ġbet a
ab ases
Ġkind ness
Ġcam ps
Ġheart s
Ġpoll ut
Ġprog ression
rop ol
are r
uss ian
t wo
Ġan at
Ġper f
Ġadj acent
Ġentit led
ĠK ent
Ġsubs id
M M
Ġst raw
Ġfeature d
ĠMove ment
Ġcomb inations
Ġatmosp heric
Ġw ake
ĠO ffic
Ġg ains
Ġb ust
k g
ĠL ess
onym ous
ĠR ab
Ġindic ators
Ġmole cule
Ġsp ons
Ġinf lation
Res earch
ro se
ĠF DA
Ġsw elling
Ġrepresent atives
Ġcontrovers ial
c ost
ĠFollow ing
Ġcoll apse
Ġintrodu cing
Ġtra v
ĠCar ib
Ġtend ency
Ġs ons
Ġan x
Ġint ens
Ġinvent ed
Ġfif th
ul ative
? **
Ġcorrel ation
Ġcal endar
Ġceleb ration
Ġdig it
Ġharm on
Ġeconom ies
ĠD at
ĠL uc
aw ay
Ġra ises
Ġcook ed
d ess
ĠF ed
m ock
Ġfriends hip
Ġpro l
Ġinst ant
Ġ ~
le arn
ĠF ac
Ġearn ed
Ġas ks
Ġel ig
Ġcomplet ion
Ġf ate
per ties
Ġbe e
Ġb old
fe atures
ĠCommun ication
issipp i
ĠAl aska
Ex ception
Ġcompet ing
ĠEnc ourage
ĠÂ ©
ĠRel ations
ĠO regon
Ġweek ly
p ool
Ġfib ers
ĠC ond
Ġinj ured
Ġpublish ing
+ +
it zer
Ġ Ï
u ple
ĠN eed
hel p
Ġm es
g ency
ĠBer lin
ĠSt ation
ĠInd ex
Ġmean ings
ĠSc ript
Ġopt ional
o il
y r
ĠWil son
Ġperson ally
reat ing
" ])
ĠO N
Ġsp ine
ĠCon clusion
or us
Ġgu ides
Ġencomp ass
Ġadvent ures
B L
ĠComm ons
Ġcomb ines
t d
Ġrel ating
Ġcamp us
ĠT ips
ĠD iet
Ġworkshe ets
g ence
Ġconsist ency
Ġagree ments
Ġevalu ated
ç ļ
swe red
ĠH yd
Ġp ale
Ġm i
ĠInt ellig
l aw
health y
Ġc ope
Res earchers
Ġdin ner
Ġang les
om al
in ite
Ġk ernel
Ġle mon
ĠInt erest
ĠS n
Ġg erm
d ers
Ġreview ed
form s
ĠOb ama
] ),
ĠPr in
Ġn od
a a
Ġhead er
Ã §
Ġpresent ing
ĠB ody
Ġpo ems
h ard
Î ½
the y
t emplate
Ġunc over
Ġh ip
Ġhist ories
it utes
ĠST EM
ĠMount ain
B D
the re
ĠL ED
ot ten
it us
Ġn oun
ef its
erc ise
ĠS anta
Ġwere n
ĠRes earchers
Ġbroad cast
Ġcy l
ĊĠĠĠĠĠĠĠĠĠĠĠĠĠĠĠĠ ĠĠĠĠ
ĠN ic
Ġconven ient
ou ri
Ġimm ense
Ġcontinu ously
m akers
riz ona
ĠJ r
Ġoper ated
s creen
er ic
he ight
Ġassign ments
Ġf irms
ĠPhil adelphia
Ġpart ly
ĠM other
Ġpost ed
Ġmir ror
Ġcat aly
ĠM arc
Ġinstitution al
is ations
ĠM ap
Ġearthqu ake
Ġglob ally
Ġmet adata
çļ Ħ
ĠF arm
Ġdepos its
he rence
ow ers
Ġge ometry
T Y
Ġoffic ially
wh ite
Ġar bit
Ġdist ress
pro v
S cient
i ors
ain e
param eters
ĠR en
cl ick
ĠBl ood
Ġmet ap
Ġcontamin ated
Ġsystem ic
ĠVis ual
Ġmut ations
Ġth irty
ĠTw itter
o king
Ġre cipe
Ġoff ices
Ġinv ited
re port
co in
Ġemploy ers
Ġb ull
it ar
sp ace
k ens
M at
Ġrepresent ations
Ġabsorb ed
ist ent
ĠSchool s
Ġdepart ments
Ġmark ers
Ġfav our
Ġmag azine
claim ed
Ġgu ided
Ġsh ade
ĠWe ek
ra ce
Ġpred ators
ore r
Ġsacr ifice
Ġstead y
Ġrefuge es
Ġins u
et ically
Ġsupport ive
ĠTra de
Ġattempt ing
ĠM aking
Ġtrans parency
Ġre nd
su ccess
im als
ĠM i
wh o
Ġstr ive
Ġpain ted
Ġto wer
ĠB ase
f am
ĠM arg
ĠF ish
the w
ĠOr der
Ġit er
Ġqual ified
t ree
se ud
Ġpestic ides
y an
Ġinvest ing
A F
ĠS pring
H el
Ġse al
ĠFr iday
cont rol
Ġwrit ings
ĠPar am
Ġs ch
Ġv ag
Ġdescript ions
Ġfoot print
Ġsurv ived
ena issance
un ar
ĠO pp
place ment
Ġexhib ition
Ġthick ness
is hers
Ġd oses
Ġcham ber
init ial
P C
Ġme ets
ĠB ern
ĠN a
Ġp est
amm ad
ĠF ig
Ġgain ing
Ġsl ight
ĠAD HD
V ER
ĠR ole
Ġmind fulness
Ġhum idity
ĠInd ividual
ĠM ental
Ġst atic
Ġp ests
Ġo w
clus ively
Ġwond ering
Ġs orts
we et
Ġmonth ly
ĠClin ical
b ro
met ric
Ġsal mon
ĠAs h
Ġorgan ism
ĠMc C
C lick
Ġtim ing
Ġphr ases
Ġm art
an th
se lect
: `
ĠJ ones
Ġf ont
Ġassoci ations
Ġrel atives
ĠDe cl
Ġelectron ics
B I
ĠS em
Ġfol k
ace utical
ĠRep resent
gg ed
' ).
More over
ep s
Ġcomm od
ĠLiter ature
Ġpart ially
Ġmanufacture r
rict ion
Ġl ift
F urther
at re
il ly
Ġgra pp
Ġple asure
in ely
Ġan swered
n c
Ġhe ter
Ġwor n
Ġch at
ip ation
Q U
Ġend less
Ġdis pers
Ġtal ks
Ġbl o
Ġaccom pany
ĠSh ort
Ġdoct rine
Ġimp ression
Ġdef ines
Ġsynt hesis
Ġdent ist
Ġadvert ising
ĠMar x
Ġent rance
ĠAs sembly
Ġcoord ination
Ġtit les
Ġbatt les
Ġorgan izing
if iers
Ġmod ify
Ġcateg or
lic t
Ġref rig
Ġaccess ibility
ist ically
Ġfol ks
e ffective
Ġphot ograp
Ġarrange ments
Ġat om
N ational
Ġm erg
ĠN ether
L ife
Ġpreval ent
D own
Ġy ields
ĠAb raham
Ġburn ed
Ġdisc ourse
Ġsust ained
Ġhighlight ed
Ġwas hing
Ġen zyme
lu x
Ġappoint ment
P V
or ative
inc ome
Ġw age
Ġb er
Ġinc orrect
ĠW orking
Ġimpl ies
s ys
ĠK n
Ġsurve illance
d ot
Ġinter val
do i
Ġext ends
dat etime
ĠC ra
mon th
C ar
Ġt ied
ĊĠĠĠĠĠĠĠĠ ĠĠĠĠĠ
Ġmin ister
equ al
Ġdiam ond
ow ed
ĠV ari
Ġbrother s
Ġpress ures
ch arg
ĠMat hemat
Ġwar rant
Ġutil izing
Ġpr inter
Ġun pre
Ġlim iting
Ġsubsequ ently
Ġfear s
Ġaf raid
Ġbas ket
Ġaccompl ished
ĠL uther
Ġexec uted
p o
pect ive
um my
mar ks
Ġacqu isition
Ġca ve
Ġm ail
ĠP ersonal
Ġroot ed
are st
ĠAd am
p res
ĠMar ine
act ic
ĠR o
sol ving
Ġoff s
ri ends
Ġgr ants
Ġtradition ally
rep resent
Ġp neum
ĠH ard
ĠG ar
Ġd rops
qu es
ĠMiss issippi
Ġass et
ethe less
Ġpsych iat
ic iency
Ġp itch
Ġpartners hips
o ard
Ġsurpr ised
Cre ate
Ġphys icians
Ġasp ir
ĠT ree
reat ment
cult ural
ĠPe ace
child ren
Ġm uc
Ġinflu enza
Ġu l
ĠF a
is ible
Ġtrib e
Ġmod es
Ġpay ments
nt il
: ||
Ġd ying
ĠAr m
ĠSh ow
Ġart work
Ġcontract s
Ġtra cks
Ġp ine
ber ries
ĠOr th
Ġ ],
st ru
ro py
ĠAngel es
ĠAf ghan
ath an
p ublic
Ġenjoy ing
Ġass ault
ver b
L ine
Ġcra fts
ib li
Ġsimilar ities
U D
Ġg au
Ġpro x
Ġgr at
Ġcomple ting
Ġb ills
v it
ĠAll ah
Ġdang ers
Ġprov isions
Ġful f
ĠScient ific
Ġevol ve
ĠMar ia
ĠCh arl
ards hip
Ġpeace ful
erv es
W ind
Ġs ail
Ġad min
ĠThe rapy
F ind
oun ters
igh th
en ergy
ĠPsych ology
á ¹
Ġqu ad
Ġc ouncil
m ay
ver ages
eng ine
Ġab ol
oc ent
um ing
ĠA rizona
ĠB on
y t
ĠR enaissance
Ġrevolution ary
H is
ĠStud ent
ple ment
Ġarrange ment
ĠF unction
U P
ĠH arr
A v
ĠM ess
ĠTh ird
Ġconstitution al
ĠH em
Ġvol umes
Ġmyster ious
Ġch ains
ĠAn imal
ĠLew is
ard ed
Ġso ap
Ġext r
ĠAcc ount
Ġpick ed
Ġexpress ing
im ages
Ġoccup ation
Ġapp le
lic ation
ĠBudd hist
s chool
ĠCarib bean
Ġdis asters
Ġenem ies
ĠQu estions
Ġcompens ation
Ġp ink
ĠO nt
Ġex it
Ġnam ely
Ġallerg ic
ĠS E
Ġworks hop
Ġse iz
Ġv om
Ġpr one
Ġind oor
Ġingred ient
Ġs lic
er am
Ġat omic
Î ¹
, ,
uls ion
Ġprofess ors
iot ic
ing ton
Ġpresc ription
in ch
Ġminim izing
Ġv ice
ĠTechn iques
Ġoper ator
ur ally
Ġshow c
ar ians
acc ount
Ġded ication
g ood
art s
Ġph on
writ ing
cy cle
Ġt anks
ĠC ore
Ġful fill
he ro
Ġsing ing
Ġrepl ied
Ġr ic
Ġpack aging
Ġal ien
Ġobvious ly
re nder
å ı
Ġexcept ional
Ġ' /
Stud ents
ĠEn cyclopedia
Ġy oga
us hes
L S
est amp
Ġillust rated
ĠStand ards
ou ch
ĠC N
ĠG P
ric ane
Ġconstit utes
clos ure
en er
A V
ĠCl ub
Inf o
Ġappro ached
ib ration
int eg
eng es
Ġbel oved
m ind
Ġon set
ĠEx ec
ĠH an
Ġse asons
Ġcare g
ĠEx ample
ĠBe havior
ĠCD C
Ġfert ility
ĠB a
Ġco ins
ĠH ig
Ġw ages
Ġpot assium
th al
lay ers
ĠAP I
ch annel
M C
Ġper ceptions
ĠSh akespeare
Ġt ags
Ġimp osed
Ġa ug
ĠCon c
R S
Ġbo ards
ut ter
ĠR and
Ġaward ed
Ġkil ometers
ĠB egin
ĠF un
Ġbi ke
Ġcar ing
Ġpl asma
Ġorig inated
Ġbut t
Ġed iting
au c
Ġmur der
Ġm a
ĠD esc
m ake
ĠR isk
Ġdis miss
ĠU RL
Ġwor ried
ã Ģ
ĠF ile
ĠF OR
Ġm im
Ġapp et
ĠApplic ations
ĠPer iod
Ġcr ust
D i
ĠB it
uck y
Ġshall ow
ĠA C
Ġfurn iture
Ġc od
ag og
Ġ' .
Ġpot atoes
et ry
Ġen v
Ġimm ers
p ersonal
Ġinteg rate
Ġim bal
ram ew
ĠJ im
Ġclass rooms
Ġmix ing
h our
Ġins ist
Ġimmun ity
Ġdegrad ation
Ġnumer ical
Ġvacc ination
Ġe co
ĠF ull
fold er
Ġjo ining
Ġstere otypes
ĠC old
Ġclust ers
Ġhe ated
Ġextra ction
Ġs our
ĠJer sey
Ġconc ert
f a
se ed
Ġsp elling
Ġwire less
re ll
ĠPro test
Ġflu or
Ġinterpret ations
re q
le m
as hed
Ġrep roduction
on in
Ġ verse
Ġcan al
Ġpolit icians
au g
c ard
in flamm
Ġvis ually
Ġtreat y
N ode
ĠT enn
Ġcont rary
d istance
ĠB io
Ġalign ment
ĠN Y
C urrent
Ġprison ers
Ġrecommend ation
M ar
Ġmark er
Ġe rect
roph ic
erm at
Ġdecre ases
H igh
Ġh ang
spe ed
Ġpre jud
ĠL u
Ġfro zen
Ġver ify
AC T
Ġfrequ encies
Ġflu ids
ĠQ uality
Ġex empl
Ġt orn
le ton
Ġreserv oir
Ġdefect s
ĠW ars
Ġwar fare
Ġst uck
ade qu
e ering
F S
ĠEv olution
P at
hold er
Ġpurch asing
un ci
Ġqu ote
Ġext inction
Ġport ions
Ġab road
Ġbrid ges
Ġeat en
Ġtox ins
per ature
Ġp ushed
ĠG ene
Ġmusic ians
Ġgen etics
Ġir regular
Ġob sc
Su pp
ĠMin nes
Ġfe es
F C
Ġmain stream
ĠS ource
Ġfat al
ĠTre nds
Ġrail road
Ġemphas izing
uis ine
Ġk wargs
Ġlo ans
ĠYO U
se cond
Ġmon ument
Ġn ineteenth
Ġsmooth ly
Ġcreat ure
Ġexam s
Ġarg ues
s ized
om on
ĠNether lands
cm d
Ġcomp ute
ip h
Ġrel iability
Ġavoid ed
Ġemerg ence
Ġantib odies
Ġm ile
il ib
ge red
E xt
Ġl in
Ġfe as
Ġst rand
Ġgra ms
Ġd ual
Ġst unning
Ġtrust ed
ac on
Ġl arv
ĠS earch
d est
Ġchap ters
ul ates
Ġt ens
Ġgif ts
P DF
ĠW ed
ĠHit ler
Ġcons ensus
al g
ĠD E
in ian
Ġassess ed
p ur
act ivity
Ġpoor ly
Ġp enc
te in
Ġde leg
b et
num py
Ġb ands
p us
ĠEss ay
Ġal gebra
Ġdat abases
do ors
ear ly
ĠTe achers
Ġartif acts
ĠBuddh ism
Ġprolong ed
an as
Ġeduc ated
ĠNaz i
Ġpat ri
Ġprof its
Ġmal aria
ĠSoft ware
we b
Ġhum or
Ġnerv es
Ġb aking
Child ren
Ġval ley
Ġsens es
Ġt ies
Ġalg ae
Ġst ops
st ruct
ry ption
Ġaccount ability
Ġtact ics
Ġt ar
\ \
pass word
gen eration
Ġ à¤
n amed
i ro
pl an
ential ly
Ġend uring
Ġdec ent
Ġbl end
Ġm ira
i ative
Ġstr ings
Ġcounter parts
Ġdep r
Ġview ing
Ġbe et
Ċĉĉ ĉĉ
Ġatt ain
Ġreve aling
Ġattack ed
ĠS O
ĠJ un
ĠPr ince
Ġspecim ens
Ġwa vel
Ġpu pp
ĠA z
fl ies
v ation
id ate
Ġt ired
Ġo dd
Ġto ile
d isc
ang ular
S O
Ġmod ules
ucle ar
Ġexp ense
T C
c os
Ġtrans parent
om ical
c ache
Ġprior it
Ġnurs es
Ġlabel ed
Ġfollow ers
Ġc ups
pl us
Ġneg atively
G u
AN D
Ġmotiv ated
Ġc tx
Ġcarbohyd rates
d esc
Ġvac uum
Ġeffic acy
Ġmarginal ized
Ġret rie
ĠIs a
Ġdisapp ear
ĠM onday
Ġex ert
ĠH ot
Ġweap on
ĠT ri
go vern
r ison
ĠS av
ĠJ ane
ĠLe ague
ĠSam uel
D ict
ĠW W
ĠCol lect
Ġflood ing
Par am
Ġform ats
r ors
Ġd ign
Ġch amp
Ġint ra
Ġbe ef
Ġcas ual
d on
e z
Ġbe aring
ĠG raph
Ġir re
EM A
Ġpass ive
ĠĠĠĠĠĠĠĠĠĠĠĠĠĠĠĠ ĠĠĠĠĠĠĠĠĠĠĠĠĠĠĠĠ
ĠArab ic
Ġen l
Ġmet a
ĠGu ard
rem ove
Ġmach inery
ĠMinnes ota
Ġpred iction
ĠH on
F O
ĠA qu
Ġph ases
Ġhero es
pie ce
Ġrel at
Ġconcent rated
ĠG ame
im edia
b en
ĠMiss ouri
Ġv oting
ĠH u
Ġdiscover ing
Ġb iblical
ĠPol and
Ġad mitted
os aur
AT H
ĠSpec ifically
Ġdeliver ing
Ġre conc
own ers
Ġpursu ing
Ġed it
re str
Resp onse
ĠT yp
H z
Ġgun s
Ġsc hem
m atch
ĠJac ob
Ġign ored
rel s
Ġver bal
n ote
form ing
Ġdial ect
head er
Ġval ve
A g
ak h
Ġfertil izer
p ot
ĠKnow ledge
ĠArch itect
s qu
Ġh orn
Ġenum erate
Ġcl ues
ple t
Ġsub str
Ġf ans
ĠCol lab
Ġorgan izational
Ġdraw ings
tem p
Ġtub es
ĠM arsh
Ġsh ipping
Ġstruct ured
ĠP ope
ang ers
Ġrelax ation
ĠStep hen
Ġagg reg
ne a
Ġbow l
Ġmagn et
ĠDem ocratic
ĠPart icip
ul ent
ac erb
Ġl y
Ġfail s
Ġsy ll
te enth
W he
Ġconst itute
Ġtravel s
Ġch ron
, âĢĻ
R NA
ĠTe aching
Gen eral
Ġseg ments
ĠH ung
Ġtrem end
ad er
feed ing
Ġth inks
e ffic
pt s
âĶ Ģ
ĠL iving
Ġsacr ific
ĠBas ic
ĠBudd ha
Ġcor al
Ġoper ators
Ġfe ather
oca ust
qu arters
Ġsuper visor
ĠDe ath
ĠP resent
ĠM es
ĠT ai
cons in
Ġrub ber
Ġequ itable
ick ed
Ġphys iological
Ġfall en
] ['
ur i
S ize
Ġdevast ating
Se cond
Ġexped ition
ĠPol itical
art en
Ġpolic ym
ĠLin ux
Ġreserv es
Ġrel ies
Ġcolle ges
Ġl ambda
ex ists
Ġal phabet
N orm
i ac
Ġdispar ities
b one
ĠN ation
em ed
Ġdev oted
Ġang ry
Re cent
ĠCon text
Ġcorpor ations
Ġnecess ity
M ax
Ġtravel ed
M et
com plete
ĠDe ep
ĠB ell
Ġprevent ed
Ġfest ival
Ġun comfort
Ġnavig ation
Ġcomm em
met a
Ġepis ode
" ):
Ġchalleng ed
ĠIndust rial
n odes
Ġf ounder
ĠSwed en
ĠF ront
Ġre wards
Ġp ap
Ġshif ting
Ġle ak
ĠMary land
our ing
Ġa ster
Ġst iff
l ob
w hen
Ġh ills
Ġde com
ins ula
ĠB uild
ced ented
W ater
at ories
Ġfound ations
Ġo ught
ĠB an
Ġca ution
w he
Ġpract iced
Ġstress ed
b n
ĠAr ist
or ney
c ir
Ġprof iles
li ers
am ents
AL L
Ġtrig gers
Ġcomp act
Ġref erring
Ġwat ched
ĠA k
Ġval ued
Ġf its
Ġconf ront
ep och
Ġcount ing
Ġmet er
Ġmat ches
Ġv iable
Me an
ĠC ape
Ġsim ilarly
ĠGerm ans
ing le
opt ion
A nt
s q
T ake
D ec
x ual
Ġhazard ous
ĠL ove
Ġrespond ed
It em
Ġf les
un ks
ĠSt one
Ġcat ast
Ġrul ing
Ġsymb olic
Ġenh ances
Ù Ħ
Ġneed le
Ġret ire
Ġdrain age
ri ers
dom inal
Ġv on
Ġemphas izes
het ics
Ġmitig ate
Ġem ission
Ġcap ability
ĠM and
ac ity
Ð »
Ġbe er
Ġex acerb
ĠPhys ics
Ġp ediatric
ĠRec ogn
Ġspir its
IT Y
ens ing
requ ency
Ġcor ruption
Ġinc idents
ĠC it
ĠT aylor
Ġint im
in ology
Ġsl ide
Ġbelong s
Ġverb ose
Ġpredom inant
ro ck
ĠEm peror
Ġlib erty
================ ================
Ġor b
Ġhistor ically
Ġwin ning
b ad
Ġinter rupt
ĠR E
ĠJ on
Ġexp end
k o
Ġflu ctu
ou lt
ĠIdent ify
Ġt ensions
Ġgen us
ce eds
Ġbreat he
Ġdefe at
Ġflo ating
ĠSu ccess
Ġd ow
Ġsh ield
Ġmaxim ize
Ġloc ate
Ġpuzz le
Ġentreprene urs
h ad
yl on
t orch
ĠTe am
class es
emb ered
Ġstim ulate
Ġritual s
Ġper mitted
cl osed
. -
Ġaff irm
Ġdom inated
h r
c am
Ġdam aging
ĠStat istics
Ġeduc ate
Ch rist
in th
Ġgard ening
Ġfost ers
Ġinter vals
ĠScott ish
S ym
met ry
Ġrein force
rec ord
pl ane
Ġautom ated
Ġhol istic
ĠIntellig ence
h ot
Ġex clusively
ĠDar win
Ġhard ly
ign ment
Ġent ries
Ġhyper t
Ġad ul
IN E
i y
Ġpal m
Ġmagn esium
Ġmechan ics
Ġcheck ed
Ġrel ates
cle an
ĠM uh
Ġattract ed
j o
ed ay
Ġla wn
Ġdeterm ines
Ġtut orial
Ġbul k
Ġexplo itation
Ġun ited
ol k
Ġa ids
Ġro d
ĠIn nov
n an
Ġmet rics
Ġdiagn ose
M in
Ġdoll ar
r ank
Ġes cap
ĠN ep
C all
m aster
S H
se q
Ġadminist ered
ĠCont emporary
ĠR a
Ġrec ur
as is
f u
Ġcul inary
og ene
ĠLGBT Q
pro b
Ã³ n
Ġcrit ics
Ġtalk ed
ĠM uch
Ġmet ric
Ġflow ing
Pro t
pre fix
Ġst ir
pp ers
Ġinflu encing
Ġj aw
ass ment
Ġye ast
ĠT ib
Ġsucceed ed
an ol
ï¼ Į
Ġvolunt eer
Ġbra ve
Ġcook ies
ĠF em
d iction
l ate
Ġmis under
fe ature
Ġrepeated ly
ru p
Ġg er
Ġrock et
ad ays
e in
Ġder iv
M ake
Ġp ars
Ġelect rom
M O
ress ions
Ġinject ion
ĠF lu
ed ies
ric es
ote chnology
B oth
ĠChar acter
Ġuncomfort able
Ġdead ly
ĠComm and
Ġstorm s
g roups
arg o
Ġpar se
Ġwe aken
he art
m us
R ed
Ġcl s
Ġadd ict
âĢĿ )
Ġhistor ian
id ays
Ġunder m
ĠD un
ĠS leep
Ġgraph ics
. ]
el and
dis ciplinary
ues day
Ġinflamm atory
Ġd ens
Ġt ear
ord an
ne x
Ġexpl os
Ġcre ations
ĠIndones ia
Ġinsu fficient
Ġterm inal
Ġn ick
Ġl ying
ag ger
ag le
ĠDav is
ĠP ict
ĠS ep
Ġtreat s
ra red
Ġpack ages
ol ine
Ġser vers
( *
cl er
. *
Th ough
ris k
ant ine
Ġp or
Ġepid emic
Ġwealth y
Ġgener ator
Ġcirc uits
Ġpref erence
Ġgar lic
trans form
Ġsuppl ied
zz le
C I
Ġspecial ists
Ġin k
se ver
Ġmet eor
Ġsun ny
Ġread s
ĠH om
ĠN G
Ġup set
Ġdistingu ished
Ġdiarr hea
Ġint ensive
Ġautom atic
Ġinvestig ations
load s
ble ms
Ġfold er
Ġoccur rence
ĠCor ps
Ġdispos al
ogn itive
bur gh
Ġmac ro
restr ial
Ġaccommod ate
ĠA h
ĠL ay
Ġunpre cedented
he res
a ft
Ġgl and
ĠRes ource
Ġdis abled
Ġbuild s
Ġdom ains
Ġcoord inates
ĠFrank lin
Ġh ind
Ġ ×
Ġillust rations
plic it
id ae
och ond
vel t
O rig
ur ated
Ġnewsp apers
Ġr ou
Ġpublic ly
Ġbu gs
Ġaqu atic
Ġge ography
Ġconsider ably
Ġassum ption
Ġauton omy
Ġsurviv ors
Ġbrilli ant
Ġter rain
j ob
Ġdel ves
Ġenc oding
Ġfra ud
ĠS ab
Ġmar vel
Ġrom antic
ĠY e
RO M
ilib rium
ĠRom ans
Ġal arm
ĠCent ers
) [
app ropriate
ĠQ ur
Ġn urse
ĠUr ban
D id
Ġv ivid
Ġprotect s
ĠD aily
č ĊĠĠĠĠĠĠĠĠĠĠĠĠĠĠĠĠĠĠĠ
Ġsign ature
. ||
ĠGovern or
Ġhun ger
Ġse arc
he astern
Ġper ipher
Ġsitu ated
hist ory
Ġl apt
ok es
N umber
s n
ĠA IDS
Ġfram es
Ġhost s
Ġrecept ors
Ġa rom
Ġb ases
ĠG ir
Ġver t
ĠT ax
arm a
Ġread ings
Ġch ip
Ġcontrad ict
re nd
ĠH ay
Ġunder graduate
line ar
Ġcoord inate
Ġtr ies
Ġm ol
Ġcop ing
ĠB alt
P ublic
Ġclos est
p air
Ġref ine
Ġl ig
Ġtrans action
us ers
ĠT y
but ton
Ġvulner ability
Ġtarget ing
Ġload ed
ĠO il
ential s
Ġge ographic
ub le
Ġz inc
Ġmass es
Ġpl ots
sec ution
cent er
m t
est eem
ĠI d
ĠCom b
Ind ex
urs day
ĠWis consin
ĠM aterials
vel ation
Ġsw allow
f ather
Ġalumin um
Ġhead aches
k al
ro ts
Ġadvoc ates
Ġn as
Ġex clusive
eful ly
Ġbi ases
c hem
pre t
Ġrecycl ed
Ġorgan isation
Ġh ill
() `
Ġmat ching
step s
G R
Ġv ocal
Ġw ed
Ġmod ifications
ĠGuid elines
Ġunem ployment
Ġconclud e
ĠN i
Ġb ell
) /
ĠG rant
g rim
Ġbrief ly
Ġreg ression
Ġload s
Ġgalax ies
ol ves
Ġt ensor
Ġadop ting
Ġinvestig ated
Ġcross ing
AS E
Ġf ut
OR T
ĠVol ume
o T
Ġb ark
Ġgast ro
Ġemp irical
ivers ary
ĠCreat ive
net work
ĠCom par
Ġn ort
x f
Ġpath ogens
ĠSer ies
Ġth umb
Ġad mit
C ent
ĠZ h
Ġscre ens
Ġprosper ity
Ġsus pected
Ġsatell ites
Ġvalid ation
c d
il ton
Ġb eds
Ġt ire
ast ing
ĠSt ay
Ġco inc
Ġpath way
ramew ork
Ġall ergy
Ġunw anted
Ġle ts
Ġprom ised
Ġbeh ave
Ġpow ered
er ial
oles cent
Ġcl arity
Ġremind er
im eter
x b
Int eg
Ġshad ow
Ġsort ed
P arser
hed ral
Ġfoot ball
Ġdisapp oint
b uilding
Ġc el
ĠP R
sc ript
ĠS ex
ĠC ook
ut y
Ġb es
V is
ĠS her
Ġperform ances
ĠMark et
ĠTh om
ĠW atch
Ġc ues
Ġr ats
Ġindic ator
Ġdepict ed
e lement
Ġmethod ology
ĠOnt ario
E nd
Ġconserv ative
g ender
il ty
ĠPr ime
an ium
ob e
c ounter
ĠM P
Ġdisput es
ĠA ges
le arning
sem ble
Ġrepl acing
ine a
Ġwalk ed
Ġfl ags
Ġsom eday
ĠI ron
Ġcomprom ise
opath y
ĠAv ailable
nes day
ig s
Ġch ips
Ġox id
P res
ĠVir t
Ġar c
em et
ĠG a
Ġl ux
ĠGra de
Ġen act
ile y
Ġcompar able
clus ivity
S ign
ic ides
Ġan ten
ar se
Ġ å
Ġout doors
ĠCont act
Ġdark ness
ĠC op
Ġmiss ed
Ġde lete
Ġk in
or se
ĠH ur
Ġsocial ly
isc al
Ġdet erior
Ġpar liament
'] [
Ġtri ps
ĠAdv anced
Ġoptim ize
Ġ //
Ġenc ounters
Ġc ensus
per ial
ĠJe an
Ġprom otion
Ġgalax y
ap ore
it oring
y ers
Ġmyster ies
em bed
Ġcryst al
Ġimport ed
Ġcomb ust
Ġb ars
Ġtw entieth
Ġpul led
Ġacc used
Ġprecip itation
âĶĢ âĶĢ
ĠCal cul
ig ating
ph al
Ġspec ify
ĠH ab
Ġconstit u
Ġprior ities
Ġco in
Ġinform al
ĠM os
Ċ ĊĊĠĠĠ
Ġint u
Ġpr iest
et o
Ġfe e
anc ies
Ġwond ers
Ġinher ited
čĊ čĊĠĠĠĠĠĠĠ
Ġpip eline
on to
Ġs perm
ac ular
d y
re view
Ġind ivid
de g
ĠC ut
Ġhop ing
ĠSym ptoms
ĠStrateg ies
il ateral
ĠH as
Ġpl ag
Ġepid em
Ġste ep
Ġl ith
ĠS D
ĠD u
tt es
inflamm atory
Ġadvoc acy
t ensor
Ġpres um
e u
Ġprot est
Ġpollut ants
ĠVictor ia
Ġcalc ulation
ig nt
s un
Ġgener ates
ĠR ub
Ġret ention
Ġrest ored
Com p
ĠL ower
Ġrecomm ends
ĠY ears
Ġter rible
ĠEst ab
Ġadjust ments
s amples
ĠR os
Ġcollabor ate
ĠK ansas
Ġexplan ations
Ġicon ic
ĠS ac
pro file
m ia
Ġf usion
Ġinstruct or
Ġrele ases
ias m
o vers
Ġin cl
Ġpr ies
Ġm ercury
Ġsmall est
e ffect
ins ic
ĠN E
f iction
Ġwh ales
Ġcrow d
e ous
Ġmeth ane
Ġin adequ
Ġent ers
G roup
Ġenterpr ise
column s
now ned
sw er
ĠAct ivity
Ġadv ancing
Ġol ive
ol ly
Ġstandard ized
ĠT am
ĠB ush
oe conomic
ann ot
Ġy ard
Ġk ings
Ġdecl ined
Ġbeh alf
S R
ĠR out
: ]
Ġtra ject
ĠBel g
Ġsoci o
ues e
Ġaccord ance
( __
Ġc itation
Ġrem embered
Ġfail ures
Ġvom iting
Ġc ite
Ġcompet e
ĠDep ression
Ġattach ment
Ġfun gi
ĠTrans port
. ')
Ġf ict
ĠC hemical
Ġpursu it
w d
st at
Ġpoint ing
Ġnecess it
oose velt
Ġres erve
Ġaccess ed
ĠMach ine
Ġre ar
Ġactiv ists
ex pl
Ġplace ment
Ġmembers hip
Ġep och
ĠG DP
ĠPlan ning
Ġtra ged
ox ic
Ġmanip ulation
ĠElect ric
Ġr ings
Ġover se
Ġstrengthen ing
Ġfun g
Ġpos es
Ġdial og
Ġd ot
Ġtra ins
ic ism
F R
Ġcons ol
Ġcon ce
ĠB h
ex per
umb led
Ġsevere ly
m ans
Ġhe pat
Ġnic he
Ġinher it
al pha
Ġanaly tical
let ter
ĠW alk
Ġc erv
ĠP ap
Ġin ver
ĠK im
Ġassess ing
uff er
Ġbel t
Ġfact ories
V D
Ġche aper
Ġcomput ational
Ġpack ed
Ġtherap ist
n i
enn a
cf g
al in
ĠP RO
ĠG h
Ġext ending
(' /
Ġm ud
ĠSpec ies
i encies
Ġper ceive
ĠA bs
ĠK ar
Ġantibiot ic
N O
in ces
Ġcomp ression
um er
Ġmus h
fore st
Ġmil it
Ġd irt
Ġkey board
p he
Ġal leg
ĠP erson
Ġtransl ate
Ġless er
e ared
ĠBr idge
Ġ ^
Ġbl adder
ĠDou gl
Ġu pload
ac cept
F act
Ġinterpre ted
l on
ile m
Ġsc attered
Ġsu ited
Ġparticip ated
met adata
ĠAl low
Ġaest hetic
ĠEn s
Ġfar mer
Ġconf erences
Ġr ival
Ġcount ies
l ings
Ġdram a
ignt y
Ġexec ute
Ġd y
ann a
Ġtal ent
Ġse af
iff s
Ġsp here
plic ity
Ġal b
Ġinvent ory
Ġs ne
Ġneg lect
\ _
ĠJeff erson
ĠÂ °
Requ est
ĠM ong
ĠP oll
Ġadapt ive
Ġtrib al
ĠSk ills
ĠN ap
Ġle ver
Ġprom ises
Ġfund ament
Ġcont ra
ĠTim my
Ġspeak s
Ġany more
im ity
Ġdig estion
P RO
Ġsm ile
vious ly
Ġm akers
g on
Ġorgan isations
Ġgen etically
ĠDep ending
Ġwh ilst
Ġben ch
ĠSy ria
ody nam
atur day
.... ....
Ġroll ing
ers hip
Ġcost ly
ĠAd apt
ĠTra ditional
Ġguid ing
ak i
emet ery
Ġr um
Ġ: :
ĠÂ ·
t mp
ĠG ames
ens ively
Ġemploy er
ĠRes erve
Ġover weight
om ed
bl ack
oc hemical
Ġann ounce
Ġdiv or
Ġcom ic
roll er
ith ub
M T
ow a
ĠT ypes
Ġbott les
ĠGold en
ation ally
ĠW as
ĠY ellow
Pro f
Ï ģ
erg arten
Ġappet ite
us r
Ġalt ogether
UL T
icult ural
Ġw ires
ĉĉĉĉ ĉĉĉĉ
Ġcast le
Ġlic ensed
Ġoutput s
Ġtun nel
ĊĠĠĠĠĠĠĠĠ ĠĠĠĠĠĠ
Ġnu anced
oc cer
Ġtext book
Ġpip es
Ġinterf erence
D isc
Ġl ighter
or ious
Ġch im
Ġabs ent
ĠP red
Ġpolicym akers
ix ed
iot ics
Ġiniti ated
est ry
um a
ĠW HO
Ġquant itative
Ġnet working
ĊĠĠĠĠĠĠĠĠĠĠĠĠĠĠĠĠĠĠĠĠĠĠĠĠĠĠĠĠĠĠĠĠ ĠĠĠ
ys ics
g iving
Ġnegot iations
Ġsim ulations
Ġunder water
Ġinvestig ating
Ġsepar ately
i ating
g t
ou b
am ation
F il
Ġcann ab
Ġb ay
ĠRet urn
am iliar
Ġor n
Ġsu pre
Ġg aming
ĠB ox
ĠS ustainable
Ġdat asets
ĠHT ML
ĠS ix
Ġdec iding
Ġstri p
Ġcardi ac
Ġglass es
Col or
Ġca ffe
Ġground water
Ġsubst itute
Ġresc ue
ĠW ould
ĠD ynam
Ġins ulation
ard less
j pg
p ip
ĠM it
Ġdes ires
io let
au nt
Ġrad ius
Ġoper ates
O K
Ġdes irable
Ġod ds
Ġan not
Ġstrict ly
Ġconcept ual
p c
Ġregist ration
h ave
Ġdemand ing
ĠT en
Ġappropri ately
ION S
ĠKenn edy
ig ion
ĠAm endment
ĠTh ings
d ays
ĠSc he
Ġrequest ed
Ġre lying
D B
Ġris es
wind ow
m id
Ġconv ict
Ġe cho
Ġl enses
ĠâĢ Ŀ
Ġwar mer
Ġfrag ments
Ġoptim ization
ut il
ĠF ive
ĠLe on
Ġtele phone
h ol
ĠMount ains
A I
ĠS ud
ĠF all
Ġpe cul
Ġele g
ĠAr thur
ĠAr gs
Ġceremon y
Ġde hyd
Ġtrans cript
Ġneighb oring
ĠF er
Ġc ro
* :
Ġreform s
Ġtempor al
ac adem
Ġprop he
w ill
Ġcon vention
Ġfre ed
Ġsure ly
z ero
Ġanx ious
Ġobtain ing
ĠTreat y
il ient
est inal
dr iven
Ġschem es
Ġl augh
Ġsu cc
cur sor
Ġcou pled
Ġh ate
ut ri
Ġcapt uring
m d
ĠR ay
Ġfor b
Ġoutl ined
ĠP ear
G L
reg ister
sc ill
ĠMuh ammad
Ġclos ing
In tern
we ek
ĠOver view
ĠMil itary
Ġtri um
Ġarchae ological
ĠRepublic an
B el
ĠCapt ain
Ġart ic
M us
Ġtom orrow
Ð º
Ġsl ope
Ġacadem ia
ĠR oosevelt
S um
ĠAr gent
Ġconnect s
ĠCount ry
Ġbo ats
ĠTurk ish
Ġmount ed
ĠHol ocaust
ĠCorpor ation
* .
Ġar rays
ut f
Ġtelesc ope
unci ation
Ġp ad
Ġblock chain
Ġforg otten
Ġrespect ed
Ġpharm ac
al o
Ġpro c
Ġindivid ually
Ġcelebr ating
Ġcon dem
Ġprom oted
Ġtim ber
Ġastron aut
Ġd rew
ĠPers ian
E l
Ġcommunic ating
M ain
Ġfirm ly
KE Y
ĠTib et
ke ep
light en
Ġalle v
ĠFre edom
Ġoblig ations
Ġtem pt
Ġz ip
ĠS a
Ġgovern or
ĠF ord
ĊĠĠĠĠĠĠĠĠĠĠĠĠĠĠĠĠ Ġ
Ġpost ure
Ġvolcan ic
D iff
he ld
es see
Ġindu ced
Ġexcept ions
inst ein
ĠHealth y
Ġpresent ations
Ġcha os
ĠFore ign
M essage
ĠR un
Ġ" "
Ġshort ly
Ġjew el
ĠP H
ĠH ind
Ġweakness es
el se
Ġschedul ed
ĠE dition
ĠP rize
ĠCon vers
ĠP rior
Ġenthus iasm
Ġpres chool
Ġed itors
ĠMe chan
Ġimpact ed
Ġrec overed
Ġc ache
ĠG ive
ĠEvent ually
Ġra ces
o en
Ġconcent rate
Ġbreak fast
ch i
Ġprot agon
Ġrout ines
Ġextract ed
ĠCir c
els on
Ġapp les
ob i
Ġlect ures
Ġd a
F L
H er
ĠL ind
Ġb om
Ġtim ely
Ġmoment um
Ġpiv otal
S ometimes
ĠV ersion
ĠPol ish
Ġfif ty
Ġpre st
Hist ory
ĠS pr
ĠM IT
Ġpe pper
ĠC L
Ġmed ian
organ isms
ĠB ad
Ġsil ent
pe at
ause a
ot le
Com mon
Ġmut ation
R AN
Ġtomat oes
Ġc eram
ĠD uke
Ġthr illing
Ġende av
ric ks
over ing
erg ies
Ġprogram mes
Ġst ays
M ult
Ġmet res
Ġtest im
Ġreb ell
Ġmagn ific
ĠEduc ational
ĠG reg
Ġlarv ae
Ġwitness ed
ĠComp an
gl obal
or ne
ĠR og
Ġ ions
Ġus ername
Ġdest ro
ĠCon cept
Ġpass engers
s ens
ĠT alk
ĠAfghan istan
Ġg rey
k h
Ġneurolog ical
ĠT al
Ġmig rations
ĠFin ancial
it ics
Ġprem ature
Ġsug ars
Ġin quiry
are ttes
O pt
s leep
Ġbuff er
st ra
Ġposs ession
ĠPhilipp ines
ĠL arge
roll ing
Ġmis con
Ġemotion ally
Ġwh ites
up iter
Ġelig ible
Ġf ier
Ġh int
au nd
Ġaccum ulation
Ġmanip ulate
Ġmanufact ured
ĠP a
Ġr iding
ĠM ission
B O
Ġmor ality
Ġbr ut
ĠAr men
Ġpos ed
Ġas ync
ĠO s
ĠAl ong
Ġplan es
oth s
Ġom ega
ĠTr ump
E vent
l ied
Ġc uisine
Ġbl acks
ĠD ate
opt im
he ster
Ġtra ced
ĠM agn
Ġones elf
Ġrespond ing
Ġmel an
Ġch op
E lement
ĠCol lection
j an
unct ure
Ġpoly mer
Ġchart s
au x
Ġrep os
ĠO wn
exec ute
Ġg ums
b ool
Ġth y
ĠMill er
Ġv apor
Ġtrans ist
ĠP ast
Ġelab orate
â Ħ
S ON
ĠAd vent
f our
ov a
Ġalign ed
pro of
Ġfl ies
ar ms
Ġalle ged
Ġdisput e
Ġmel ting
Ġlegit imate
w ait
Ġbow el
we ights
Ġgen res
Ġenvironment ally
ult ure
Ġunf air
f ive
Ġconf ron
Ġadv ised
ĠR ap
tern s
ĠMat thew
Ġintermedi ate
Ġslow er
Ġpoll en
â ĪĴ
Ġpul se
ĠC ru
Ġdis p
Scient ists
Ġsk ull
Ġoccas ions
Ġb od
Ġsoci oeconomic
Ġacknowled ging
Ġphys ic
---------------- ------------
oult ry
Ġep ic
av ailable
Ġpharm aceutical
(' --
ĠAg ree
f in
ĠM oh
off set
ĠDef ense
Ġden ied
Ġcontrovers y
ur red
Ġb on
ĠHis pan
Ġcav ity
ik h
isp here
igh ters
Ġcons p
ĠP il
Ġbust ling
ĠN ig
Ġbreak through
Ġconvin ced
Ġsubstant ially
Ġbl ame
Ġconj unction
or ie
Ġc um
Ġjuris diction
Ġsynt hes
Ġoffs pring
Ġm arch
Ġsec ular
. ",
F ree
it ime
Ġfor cing
art icles
Ġ" ,
ĠK at
Ġin cons
est y
ĠSing apore
Ġrelie ve
Ġcivil izations
ĠPl ants
Ġan est
eng u
ĠC ensus
Ġtremend ous
M r
Ġmult if
ĠB oy
Ġtit led
Ġsatisf ied
osp here
id el
Ġw ax
Ġar ises
ins ert
Ġres idence
py test
Ġth rown
ĠM u
Ġde emed
b led
Ġdiv isions
Ġpassion ate
Ġre nowned
ĠDie go
T A
x ml
ĠB ird
pl ing
Ġappe aling
A ug
ĠObs erv
us ive
Ġleg ally
Â ©
Ġamb ig
S everal
ĠH unt
Ġde ar
l anguage
Ġun clear
b ral
sh ot
Ġsau ce
Ġfert ile
ĠHawai i
Ġb rick
ul as
C opyright
Ġrad ar
N um
ress es
ĠMon th
ĠCl ark
Ġcitizens hip
ĠPortug uese
Ġs ends
Ġw ool
ĠĠĠĠĠĠĠĠ ĠĠĠĠ
im ated
Ġ' ,
P P
es ome
w iki
Ġjud ges
ef t
ĠThom pson
Ġlegisl ative
d t
Ġwork force
d am
ole cular
Ġg ay
pro du
Ġany way
pro to
Ġh ub
ĠO p
Ġproject ed
Ġunf amiliar
ĠC ustom
ĠEth iop
pre hens
Ġhand y
ĠH old
Ġdign ity
ĠB ow
Ġsol ved
Ġfles h
ĠB all
ĠAust ria
We b
op hers
su per
A cc
ĠL ily
are n
ĠCh ile
indu ced
Ġrecept or
let al
Ġpro state
m outh
Ġab dominal
Ġre ass
ĠJ o
ĠUt il
ĠInd ependence
Ġinv isible
ĠChall enges
G od
S M
Ä «
cl ip
â Ĥ¬
test s
ĠNor way
Ġemphas ized
? )
f at
G B
Ġconsist ed
Ġsurv iving
Ġrev ision
ras ound
Ġimp aired
ĠPol y
Ġpla que
Ġ' __
ĠL o
Ġlet ting
ĠResp onse
I X
Ġclass mates
Ġpro st
Ġenjoy able
st ats
ĠAb original
mon ary
Ġed ited
ĠCreat ing
ac cur
ĠSm art
Ġtable ts
l ass
Ġtre asure
Ġworkshe et
Ġr anks
G ood
Ġpur ple
ĠL ands
ĠDis order
Ġsp r
G A
l ies
ĠAr k
int erest
ex cept
tes y
Î µ
Ġw ounds
Ġnot ably
in formation
ch annels
ĠIsrael i
AT A
J an
ĠUs ually
Ġthe ater
ĠE X
k m
Ġb rows
Ġav en
AR S
Ġsil ence
Ġin clusivity
ĠT our
Ġlack ing
Ġstri kes
Ġsal ary
ĠH ad
Ġban king
ell ar
Ġ ip
Ġsuper vision
Ġm elt
ĠI ce
new s
Ġec ology
Bl ack
ol ith
Ġsimpl er
ac ke
ĠEffect s
od ge
Ġtra p
Ġd os
im ation
Ġox ide
ĠDet erm
Ġun iqu
Ġcultiv ating
ĠProt ect
ĠO w
ĠAn ne
Ġpoison ing
ĠUt ah
E urope
Ġvari ability
Ġpersonal ized
im s
Ġdecre asing
Ġcar cin
Ġflu x
m n
Ġwhe els
O pen
ER E
ad min
IN D
Ġun healthy
ĠSy ndrome
ĠProp het
Ġst oring
ĠW H
E nt
h ash
ĠTe le
Ġnav al
Ġde ce
Ġsp ont
Ġauton omous
Ġincent ives
ĠA mb
m ill
Ġident ifies
Ġrehab ilitation
ĠR aj
ĠRes ults
Ġstret ching
Ġsn ake
ound ing
Ġkid neys
Ġb alls
ve ment
L oad
ĠF low
V ol
Ġpot ent
Ġm ast
Ġint act
t ail
Ġcra fting
ex it
ĠAd ams
ĠPub lishing
---- ---
ĠAl bert
Ġse as
ĠLouis iana
Ġam bit
Ġag enda
Ġopen ly
Th us
ru ce
Ġg ross
int on
Ġcert ified
Ġdefe ated
osa urs
es pecially
ĠS i
) **
ĠF A
ĠP A
N on
ĠN at
Ġrig id
Th ose
pe ople
Ġmat hematic
Ret urn
ow ing
we ed
w ich
F i
ĠParent s
ĠF iction
ĠS ite
th ird
Ġref ined
ĠGen erally
ĠS outheast
Ġdiscuss es
u ana
Ġcontin ually
ĠTenn essee
Ġann iversary
Ġ ):
Ġexpl osion
Ġthreat ening
Ġign or
it u
tain er
Ġproblem atic
re ach
ĠCh o
Ġcr ash
Ġrestaur ants
Ġadvoc ating
ag rams
Ġelim inating
Ġden om
Ġd ump
S w
z ens
ric ular
r ative
od s
) -
Ġs or
Ġsh ops
O ct
Ġr ating
v ised
ck er
er ce
el ong
Ġst ro
eral d
Ġgl ands
Ġbal ancing
Wh ich
B en
Ġad hes
AC K
Ġmain tains
Ġcertific ate
Ġtra ces
ven ue
Ġtrium ph
Ġc iv
Ġaff ili
Ġtu ple
Ġmen stru
Ġpy ram
Ġstim ulation
) *
Ġvent ure
F ore
last name
ĠTe acher
Lear ning
ĠDecl aration
so le
ĊĊ ĉ
Ġequ ilibrium
Ġcert ification
Ġen for
ĠCh ap
Ġcounsel ing
ĠK ong
Ġwell s
ad ian
Ġc ows
ĊĠĠĠĠĠĠĠĠĠĠĠĠĠĠĠĠ ĠĠĠĠĠ
Ġsyn chron
Ġmy ths
Ġgl ue
Ġar tery
Ġf ake
Ġd ancing
ĠP ack
conn ection
Ġpan ic
Ġd amp
ast ed
Ġsome how
itzer land
", "
Ġschol ar
ach ment
ĠDi abetes
Ġfl ed
Ġfound ing
ad i
Ġpast e
Ġmarg in
ĠH ong
vel y
Ġpass ages
ann y
Ġvirt ue
T ube
Ġm aternal
Ġc ov
Ġg reet
ab etic
Ġb ip
iz able
ing ing
Ġpost er
æ ľ
Ġs rc
ed ed
Ġbreak down
) ?
ĠCar bon
Ġopp ression
Ġadvers ity
Ġneighborhood s
UR L
ver ts
Ġacknowled ged
int estinal
Ġpref ix
Ġperm its
Ġqu ot
t z
Ġres ort
Ġs ore
) (
D C
ĠNob el
Ġd well
Ġnot ing
Ġappro aching
ĠJud a
Ġst ocks
Ġfor ty
oo lean
Ġimp ul
Ġgl uten
Ï Ħ
Ġmon etary
Mod ule
Ġd ough
sh ore
pow ered
Ġper t
port ion
Ġj un
im b
ĠL esson
M ark
j amin
Ġinterf ere
F P
Ġarter ies
Ġo ct
ĠJ ordan
Ġsovere ignty
Ġt ender
Ġab d
Ġur gent
Ġl act
ĠG as
Ġtra pped
aps ed
Ġpro be
Ġsh o
t an
ke ley
Ġut er
Ġmaster ing
ĠC ert
st ates
am el
ĠL ink
B ar
ot ive
ĠB esides
Ġgra ve
ex pr
E A
Ġvisual ize
Ġscholars hip
com b
ant ing
Ġpl astics
Ġup coming
Ġsou p
Ġreg ulated
rolog y
op ter
Ġmyth ology
Ġvot ers
Ġbit ter
Ġconsult ation
Ġconvent ions
Ġo ven
ol as
Ġbas in
Ġelev ation
un ing
ĠL oss
Ġsk ip
Ġr het
Ġdys function
ĠG PS
ĠGree ks
Ġext ensively
Ġdow nt
Ġtrans it
å Ī
Ġfail ing
dom ain
Ġsn ap
urg ery
ra de
Ġdam ages
lighten ment
Ġm asks
Ġl unar
Ġdepend ence
iling ual
Ġsod a
Ġconf ined
ĠSim ple
Ġw olf
Ġpra ise
t imes
Ġgu ests
Ġvolunt ary
ap ing
Ġob ese
ĠEvery one
se en
ĠSim ilar
pt on
Ġhier arch
Ġepis odes
Ġg el
ĠAff airs
Ġap i
ĠB apt
orient ed
M R
q a
Ġout standing
st ock
Ġstr at
Ġtour ists
Ġloyal ty
Ġc f
Ġ" .
Ġdis pro
s ort
Ġdisc ount
x c
best os
Ġp ulumi
Ġall ies
Ġsens ation
Ġwithdraw al
Ġhas n
ĠSt ories
ur ations
ĠB ot
Ġl oves
Ġprov inces
m ount
Ġm esh
Ġd ilem
ct x
ater n
Ġdraw s
ant e
S ur
oler ance
ĠEx cel
Ġmod ification
Ġrul er
Ġg low
Ġep it
Ġid x
doc s
l av
Ġrec ru
Ġveter in
it ations
Ġcurrent s
Ġind ication
l ades
Ġnew born
Ph oto
Ġmonit ored
Ġpig s
Ġ ||
Ġse ats
Ġmat plotlib
ĠPat ients
ĠPM ID
Ġcaffe ine
Ġgu ilty
Ġalt itude
ĠC ertain
x change
Ġdu ct
st age
Ġpat ches
Ġsm ok
Ġdifferent ial
Ġgrad ient
Ġtou ching
ĠP i
ather ine
Ġambit ious
ĠParam eters
Ġyour s
Ġsat urated
Ġstay ed
er ating
Ġmind ful
ĠH al
roc ery
Ġconf using
ĠCl oud
ang les
Ġf riction
Ġhead ed
Ġtransform ing
ed uc
ĠB road
Ġbrand s
Ġwell ness
Ġimp rison
Ġthread s
Ġnum b
Ġm ines
Ġappl iances
Ġpecul iar
ĠJ upiter
Ñ ĥ
ott om
ĠB ah
g ate
Ġv oy
Ġsh ar
Ġgl ory
ĠBen efits
ĠConfed erate
Ġind ices
Ġintent ions
Ġinv ite
uss ion
Ġcar p
Ġresol ved
ĠIss ue
aut ions
Ġenthusi asts
Ġflu ores
Ġbiom ass
Ġtrig gered
Ġdes cent
Ġcor ners
" {
Ġview ers
Ġmuseum s
ograph ies
iv ism
Ġhead ers
ĠProt ocol
Ġelectrom agnetic
acke xchange
ibl ings
Ġschol arly
D oes
Ġarrest ed
Ġaccept ing
ros ion
Ġdeep en
ron es
ĠDoc ument
ĠL ady
ĠAst ron
l ook
ĠS ound
Ġwarm th
Ġteen agers
Ġanim ation
Ġhop ed
Ġhypert ension
Ġmagnific ent
is a
ĠF riends
ze ch
Ġinteract ing
Ġpresident ial
ĠI C
achel or
m i
Ġrep ublic
Ġdelay ed
Am ong
Ù İ
T op
ĠR od
W H
im ental
Ġj et
Ġstop ping
P ol
Ġresearch ing
he ll
Ġevery body
Ġ Ø
D I
Ġinspect ion
o ors
ĠBl ock
ĠKen ya
is er
ĠN ort
Ġmetap hor
Ġp orts
Ġcol ours
OD O
Ġve ctors
if ting
ĠT uesday
ac re
Ġnut rit
Ġimag ined
Ġground breaking
D ev
Ġl ining
Ġcon form
Ġce ment
ĠMathemat ics
ĠIm perial
s ent
ot y
Ġintest inal
ĠUk raine
Ġc ous
ĠD ub
Ġev ac
vent ional
Ġlaw yer
ag us
ĠG er
on ut
âĦ ¢
B as
Ġg ang
Ġdist ribute
Ġemploy ing
Ġsub mission
Ġcar rier
Ġnucle us
Ġfair ness
b ird
TS D
ĠLeg al
ĠCons ult
L C
k it
Ġaltern ate
Ġfict ional
K now
inc ial
input s
Ġtra g
ee ze
Ġconstruct ing
Ġse w
Ġsold ier
ru bs
Ġc ock
Ġall ocation
as a
Ġ" /
pl ug
Ġrec ruit
ĠMal ays
Ġstraight forward
ĠJ oh
Ġbul bs
Ġhol idays
n l
Ġs occer
Ġf art
Ġs ink
Ġv end
Ġshell s
Ġok ay
'] :
Ġcontroll er
ynt hesis
c rit
ĠR oss
te ch
Ġrev ised
Un fortunately
Ġfresh water
Ġantioxid ants
ĠExec utive
Ġv otes
uc ks
Ġshoot ing
AG E
Ġinstruction al
ch a
Ġass im
Ġtap estry
ĠCast le
Ġsp ices
role um
ĠMethod s
udd en
Pro ject
cl uster
D O
ke eping
ĠAl ab
Ġbill ions
Ġy og
Ġpy test
Ġtal ents
Eng lish
Ġemail s
ĠV in
f ood
Ġnob le
Ġover t
Ġm ul
ĠP it
Ġam ph
mer ce
st ackexchange
cont rolled
ĠE le
Ġcompan ion
Ġpropos als
ĠPrim ary
H uman
ĠU C
Ġadjust ed
c ription
ig e
ik es
ĠS ri
Follow ing
E st
Ġunf old
Ġhead ing
Ġintrodu ces
Ġtraum atic
Ġcryst als
ĠE aster
ĠK it
Ġcou ples
writ ten
ĠPhilos ophy
Ġsettle ments
ĠCap ital
Ġnob ody
IN T
av y
Ġv ow
Ġworth y
res istant
ogen esis
Ġmot if
Ġimpair ment
Ġdemonstr ation
ĠE lement
ĠAnt i
f red
on ial
Ġg am
ĠPhil ip
Ġfle et
am ous
ĠReg ional
Ġm aj
b ian
Ġh iding
ĠC ab
ĠN ight
Ġvari ant
ĠTh ursday
ĠMay a
Se lect
ĠRad io
b ling
Ġmicrob es
ĠA y
ob ia
am an
Ġtrans itions
Ġtri angle
Ġgra vit
an alysis
ĠV ill
ĠE arl
ag a
m atic
ĠQu ant
t i
fol io
ĠH ub
Ġactiv ated
ĠT aking
ĠS aturday
ĠF est
ĠTe ch
Ġdest ructive
Ġinev itable
et on
un es
Ġgu ilt
Ġtem ples
Ġclub s
fact ory
Ġcross ed
Ġun con
Ġundert aken
Ġinst inct
Ġdesign er
D at
Ġconnect ivity
ĠIndust ry
ĠN ich
y our
ĠP V
Con st
} {
Ġgrat itude
Ġconfident ial
imm une
Ġh anging
ak ota
O per
Ġfound ational
On ly
Ġillust rates
Ġlong est
Ġb ore
Ġrenew ed
us ually
ĠB CE
S pe
m other
Ġdo zen
lay out
Ġexam ines
Ġer ad
ĠW i
ĠSw itzerland
Ġunt o
ĠMem orial
l an
Ġas ym
Ġsh ots
Å į
Ġtru ck
pro f
co ord
ĠTer rit
u uid
Ġt ears
Ġlik es
ĠSt ruct
Ġbas eline
/ {
Ġres ilient
Ġb apt
Ġradio active
Aut hor
mark et
ĠArch ae
ĠUp on
ĠResp ons
Ġinsert ed
ul ator
ar an
Ġgod dess
Ġwh is
Ġhead ache
Ġve ins
Ġvalid ate
D ay
Ġinadequ ate
Ġenc ryption
resh ape
A ccess
-------------------------------- --------------------------------
Ġlater al
Ġmemor able
d jango
view s
ĠFred er
ĠC V
ä »
ast ically
om ics
ri ad
ĠG il
G ET
Ġex cluded
ĠWed nesday
enn is
ĠF isher
Ġcultiv ation
Ġoutbre aks
L ong
is ite
ĠR ose
Ġpart ition
ed ic
Ġsequ encing
u f
Ġan k
urt les
at is
ĠK ind
Ġpre lim
Ġhung ry
em an
Ġop io
requ ired
v ia
ac ial
Ġpl ural
Ġ ðŁ
ĠW y
urg ical
ĠP os
ĊĠĠĠĠĠĠĠĠĠĠĠĠĠĠĠĠĠĠĠĠĠĠĠĠ Ġ
Ġjour neys
ĠJ our
Ġthr iving
Ġover night
ĠIndian a
Ġwarn ings
Ġcompat ible
ĠSt ore
osc ow
Ġreprodu ce
Ġrele asing
fig ure
train ing
Ġp a
Ġe ternal
E arly
Ġbre eds
Ġelim inated
Ġhepat itis
E lect
ra ul
Ġparam ount
Ġcom ics
b oth
Ġlif es
? <
Ġcontact s
ĠAlab ama
ĠN C
Ġground ed
ĠS QL
ĠR ain
ĠAnt on
ĠH arm
r ator
Ġw rap
Ġmill enn
am l
sever ance
d in
Ġoverl ooked
cre ated
Ġvers atile
Ġco ating
st able
ĠP ier
oc ide
ag ent
mer cial
ĠLaw rence
ĠProf essional
Ġheight ened
Ġconsid ers
Ġ ).
Ġblock ed
Ġchem otherapy
Ġcat alog
ĠTest ing
Ġhand led
Ġvisual ization
Ġmit ochond
Ġvig il
ĠV ideo
Ġprint s
on ts
Ġj ack
Ġparas ites
ĠTra vel
Ġdes per
ĠC hemistry
Ġ ĊĠĠĠĠĠĠĠ
er on
Ġdel ta
Ġfacilit ating
U G
Ġar ising
Wid get
ind ices
he um
Ġloc als
A nal
Ġdry ing
oub ted
Ġafter wards
= -
ĠB rad
oc ur
Ġun common
Ġexhib its
} ")
ĠDise ases
ĠV eter
ĠT ools
ĠQ t
Ġvalid ity
ropol itan
Ġbirth day
Ġmosquit o
S ocial
ĠT erm
Ġdem ographic
Ġdivid ing
mind ed
Ġs ake
Ġvent ilation
iz oph
ĠSo on
Ġto ll
roph y
Ġp ere
Ġmob il
Ġconven ience
ĠFact ors
ert o
Ġcor rection
ĠS ong
Ġclar ify
Ġn ausea
Ġvis ibility
Ġes cal
ĠQu estion
Ġcon sec
Ġvari ants
F ood
f oo
ĠS ant
Ġrestaur ant
Ġl oving
Ġexp ose
Ġadministr ators
EMA IL
= ['
Ġcondition ing
e conomic
Ġperiod ic
Ġca ut
augh ters
ĠPract ices
Ġadul thood
S earch
Ġmand atory
ĠL ie
ĠU pper
fact or
ic ut
Ġext inct
ĠA ra
man ager
ĠD or
Ġ[ ],
Ġcapital ism
I dent
ĠD al
Ġm ant
Ġo scill
Ġdis placement
Ġcru el
Ġber ries
Ġst ain
Ġclean er
Ġpure ly
Ġb anned
ĠJam ie
ĠK al
ros is
z ip
ĠS ports
Ġde le
eth yl
ĠOtt oman
Ġcombust ion
Ġpe as
play er
og lob
Ġimpl ant
Ġdescend ants
g ly
Ġadapt ing
čĊ ĉ
Ġsurge on
ĠSt ock
izoph ren
z o
ĠT rib
Ġrem edies
ER R
Ġlast ed
Ġload ing
Ġles ions
est ab
Ġfinanc ing
Ġrel ied
ĠAct ivities
bo ards
Ġallev iate
ĠB BC
Ġthr one
ir k
ĠO K
Ġstat ue
as ia
aud i
s ql
ol ia
Ġeconom ically
parent s
Ġmicrob ial
L a
x e
Ġst amp
ĠVirt ual
Ġapp end
dis play
Ġp anc
Ġtransport ed
Ġra m
Ġinteg er
Ġw olves
ĠF at
hand ler
Ġpun ct
AS T
r idge
Ġcompar ative
Ġtempor arily
Ġo zone
ĠH ans
Ġaut umn
Ġb ats
ĠS C
ĠL es
ill es
ĠC ool
Ġhas h
Ġquestion ing
Ġret ained
Ġtrou bles
ĠProtest ant
ĠCh am
ĠWh it
# !
all ing
Ġharv esting
Ġcle ver
Ġwant ing
ĠBang lades
Ġutil ization
h ouses
Ġin h
Ġhoriz on
Ġsp ell
Le vel
ĠP ra
Ġex otic
er k
Ġmat urity
ĠYou th
Ġdr ill
Ġautom ation
Ġdil ig
ĠH ait
Ġoccas ional
ĠZ e
Ġs q
Ġmicro bi
h is
it ched
Ġm asters
Ġfavor able
J u
ĠEx ercise
: -
Ġg rocery
spec ies
ĠEurope ans
ĠApplic ation
ĠC ro
Ġwet lands
Ġrecre ational
r ide
om ial
x d
ag u
ĠBar b
ĠTyp ically
Ġimpl ied
ug ar
ĠSim on
S N
ĠArist otle
Ġpries ts
ĠG i
ĠC ass
Ġhier archy
ĠOrth odox
ĠE uro
Ġwound ed
Ġphilos opher
F IL
Ġb esides
Ġcos mic
en h
Ġtr im
Ġrail way
H R
Ġg ym
Ġrandom ly
Ġrest ing
G reen
Ġsufficient ly
Ġun int
G iven
n ut
Ġgau ge
Ġen force
Ġsl ides
Ġc ram
ock ets
M em
th reat
H aving
ĠF ox
Ġbur st
Ġpand as
el le
ĠRef lect
Ġper me
n ational
ill ery
Ġasp iring
Â ł
Ġprox imity
Ġqu otes
el d
ixt ures
Ġfoss ils
ĠG rowth
Ġp oultry
Ġt we
NA L
th an
Ġres et
b es
Ġdeploy ed
ro sc
Ġassum ing
ĠW IT
art icle
Ġpot ato
ĠJuda ism
ĠSt aff
Ġcollect ively
S U
ĠTh ank
ĠE V
m ove
ĠAuthor ity
Ġd war
Ġhot el
Col umn
Ġreg ards
Ġshould ers
Ġtut or
Ġman kind
Ġsp ite
Ġco hes
Ġcharg ing
Ġprelim inary
Ġm ad
ra cing
Ġrep ly
Ġearthqu akes
ens is
ĠCrit ical
Ġn a
ĠEm ily
Ġsexual ity
Ġpron ounced
Ġsan ct
ĠBe ach
al ia
ĠÃ Ĺ
ĠE D
s in
ur rection
ĠCh i
________ ________
iol ence
ĠTor onto
Ġv ic
Ġbur ial
Ġsil k
Ġwarn ed
ĠNig eria
Ġsing ular
th read
pos ure
ĠPro blem
P N
Ġf ancy
Ġb icy
Ġsw ord
Ġport able
Ġflood s
oven ant
Ġreconst ruct
Ġo re
em at
Ġad mission
M ap
Ġp icking
Ġstimul i
Ġ ib
Ġtraged y
ĠLast ly
r ish
lo op
oubted ly
Ġ ##
Ġd ated
Ġut f
C ur
Ġg host
ut or
Pro cess
ĊĠĠĠĠ ĠĠ
ĠKent ucky
sh ort
az a
Ġs iblings
Ġprot ests
W A
Ġshow case
Ġswitch ing
arg v
ist le
iv ia
aret te
Ġnurt uring
ias is
ĠArch ives
ĠCub a
ra ble
Ġor ch
Ġcompr ised
Ġqu it
Ġto mb
Ġto dd
Ġemb od
st an
is an
Ġat e
Ġde ployment
ĠYou Tube
d ependent
Ġdisc ern
De velop
Ġadvert ise
Ġunt reated
an ia
Ġl inking
ill er
ĠW ords
Ġprot otype
Ġadapt ations
ĠSt ress
ĠK ings
u z
Ġbutt ons
Ġillust ration
Ġtr ash
Ġpo ets
ĠInit iative
g ithub
ĠDi agn
ĠEconom ics
Ġwhere ver
Ġliv elihood
Ġby tes
vol ume
ĠAgricult ural
com mit
al id
Ġprocess or
Ġent ails
ĠO m
min ute
ser ial
ĠT ask
Ġle ather
. <
Ġcomm erce
U C
Ġsign aling
Ġsil icon
Ġn our
ĠUn iverse
nd array
Ġne at
det erm
Ġbl oom
Ġsuper hero
Ġexerc ising
Ġf ired
ion ed
ĠHistor ic
Ġpro pose
Ġsum m
ĠS M
Ġdissol ved
Ġmet all
Ġb ureau
em en
Ġgraph s
Ġrem edy
Ġnutrit ious
p her
Ġwood s
Ġbu g
ĠO t
u ating
ĠC zech
Ġparticip ant
G reat
direct ory
Ã £
le vant
Ġhom eless
ĠStan ford
Ġdr illing
Hand ler
em ption
ĠDen mark
Test Case
Ġfirst name
ĠC and
Ġpneum onia
Ġcomp iled
Ġin ability
ĠM oscow
rox imately
ĠS pect
B ook
og g
Ġlist ing
Ġcool er
Ġcompr ises
b b
is ol
ne ver
Ġpull ing
Ġoff ensive
are a
Ġmod est
Ġretire ment
ĠUS DA
Ġtoile t
ĠF eed
ren al
Ġel ite
U RE
Ġne arest
Ġcomp osite
ĠG round
ĠC redit
Ġtu ber
A f
Ġantioxid ant
Ġadapt ability
c ourse
Ġwh ale
æ ķ
Ġg rief
Ġinter ven
b id
ĠI owa
ĠHar ry
m ble
ing e
ĠC amb
o qu
ĠD ark
ĠCo al
Ġ' -
Ġcommand er
H ead
ul er
Ġsupp ose
Ġform ally
Ġpol ym
ĠBet ter
âĸ Ī
ĠReg ion
ĠBel ow
Ġquestion na
m ass
Ġsix th
: *
ĠSwed ish
Ġlearn er
ĠG re
Ġopp osing
Ġshel f
sc he
ĠOpp ortun
Ġp iano
ĠC hen
Ġpro pri
ĠM O
Ġshif ted
E v
) ).
up uncture
Ġfrag ile
Ġcon ve
be at
ĠPat rick
Ġadjust ing
c ision
Ġqu een
m etic
Ġscr ut
h idden
Ġtransform ative
But ton
ĠEv idence
Ġsn ack
if iable
St r
Ġwe eds
ĠCons erv
Ġh its
Ġr ust
Ġ" \
aut o
ĠAll iance
Ġfluctu ations
Ġinstrument al
~~ ~~
ig o
te es
ĠV ery
Ġdr um
Ġremind ed
ĠPrin ciples
ĠM as
Ġspec ially
Ï ī
Ġeven ly
Ġpredominant ly
Ġp seud
a us
Ġcultiv ated
Ġsatisf y
c p
ĠF acts
on ics
Ġnew found
Ġchar ity
m o
kl ah
ne ath
Ġscr atch
ĠBen jamin
S cience
er os
ĠPark inson
Ġpenc il
ip y
Ġlit ter
Ġreg en
ĠPro b
Ġdisapp eared
Ġpray ers
Ġsh ame
cler osis
str ong
F OR
c ustom
__ ':
Ġcult urally
Ġsuggest ion
ĠPre vent
ĠH o
Ġoccup ational
Mean while
c v
IC E
Char Field
we alth
Ġsc atter
Ġgl ance
T ypes
Ġt ie
ar on
ĠH ou
ail ure
Ġd op
). __
m el
ĠRem ove
M ethod
Ġflow ering
us ions
oll o
ic ode
Ġwis hes
Ġclaim ing
Ġphilos ophers
ĠPalest ine
Ġ á
ĠTor ah
Ġrul ers
Last ly
Ġam ple
lim ited
ĠN A
by tes
ĠB ud
ĠMo ore
C ode
c ategory
Ġp umps
Ġmar king
Ġperman ently
ĠR oc
ond er
Ġmosquit oes
g ument
in ar
Ġover head
Ġparent al
AS S
writ er
Ġrat ios
Ġcm d
Ġst ating
ac eted
ht m
ĠIss ues
Ġcomplement ary
Ġut ter
cur s
Pro v
Ġperipher al
Ġtoxic ity
ĠKh an
Ġlif elong
f lu
p ill
D IR
w elling
ĠPre par
Ġinf inite
Cl ient
Ed it
Ġencomp asses
ĠE li
Ġem peror
ĠL anc
ĠCont ent
log in
âĢ¦ .
ar ry
Ġh i
Ġwater ing
ĠAd ditional
Ġfant asy
Down load
Ġinst antly
ĠArch ived
ĠAppro ach
Ġtre asures
Ġmon arch
P age
Ġsem ester
Ġar sen
" >
Data Frame
Ġp s
less ness
Ġresid ual
I B
Ġadv ise
Ġpubl isher
ere r
Ġrender ing
f uture
Ġl engths
Ġagg ression
ĠPop ulation
ĠNew ton
Ġvers es
Ġinvest ed
Ġstrugg led
ĠBro ok
Ġmicrosc ope
Ġpuzz les
ific ant
ĠNorth west
Ġfro st
Ġcoron avirus
ĠTai wan
Ġoblig ation
P M
pr im
Ġadvance ment
Ġpenal ty
Ġwhere in
Ġclim bing
Ġsupp orters
ĠPart ners
ĠS yd
Ġarchitect s
et ric
Ġmicro organisms
Ġanaly tics
Ġwild erness
Ġst icks
orest ation
Ġge ometric
S QL
ign ant
ĠAnd erson
ĠC os
ĠSum mer
Ġtang ible
Ke ep
ĠN urs
Ġgradu al
ocy tes
Ġfit ting
T ensor
ĠS el
Ġinter personal
Ġind oors
Ġreject ion
Ġjewel ry
le ys
t ags
ĠDem ocr
ĠVictor ian
ourag ing
ester day
M OD
le ading
Ġf ool
Ġgener ic
ĠSo il
Ġref ere
Ġacadem ics
Ġfeas ible
T HE
ĠF ried
Ġsubject ed
g b
ĠC art
Ġrel uct
ro ve
] <
Ġoverl ap
Ġwaters hed
Ġfeather s
klah oma
Ġpack et
un c
Ġmy riad
Ġst umbled
f und
Ġsupp ress
Ġabd omen
ĠN an
Ġs li
ĠT ool
R N
Ġgu itar
Ġclin ic
own er
ĠPer formance
Comm un
ĠD ick
ĠBer keley
Ġu mb
h u
Ġh o
Ġpo le
Ġopp onents
t ab
Ġg ig
Ġg amb
Ġjud icial
Ġappreci ated
ĠAccess ed
" ;
ail and
ĠDevelop ing
ar bon
co res
Ġun ions
Ġjust ify
ĠH un
ĠJ oint
Ġcur ves
Ġd ermat
Ġcar ved
iz za
ĠJ ob
pro p
head ers
p olicy
in ence
Ġwor ms
Ġrab bit
Ġsc arc
Ġoverwhel med
Ġgravit ational
Ġwal ks
rou te
h ind
Ġcompet itors
Ġreal izing
Ġo ak
Ġexplore rs
Ġu pt
Ġde ck
Ġment ally
op or
ren cies
Ġcit ations
ĠW AR
Ġcareg ivers
ĠW right
Ġt ent
Ġh ire
ĠT otal
Un it
Ġhand ful
U E
ĠCommun ist
ĠRec ord
Ġp ir
hes ia
Ġen velop
Ġbod ily
ĠP s
Ġpe an
at ility
ight ing
St atus
Ġc raw
ĠW inter
cc a
rit e
AC E
ĠM s
Ġlower ing
part y
Ġam mon
ffic iency
Ġprivile ge
Ġc arn
AP I
ĠDef inition
Y et
Ġal oud
ard o
Com put
st ar
Ġsec ured
fl at
ĠA ward
ĠL akes
ur ban
ns ic
ĠCurrent ly
Ġindu ce
H ome
ĠB at
ER T
E V
Ġcl ip
Ġdel iber
t ml
Ġregul ating
ĠS ure
Ġdo zens
Ġoffer ings
u pp
ĠGen esis
w ave
Ġwas hed
ĠAll en
v o
ĠAut om
Ġped agog
Ġ âĢĻ
Ġrespond ents
Ġdiff ers
Ġtru cks
ĠBy z
(" \
ĠMe asure
od d
Ġthought ful
C or
Ġconcept ion
D irect
Ġbare ly
ĠP eters
AB LE
Ġf iscal
"] ["
' }
Ġs its
Ġinter sect
Ġfree zing
ĠMem ory
Ġlim bs
Ġcompan ions
ĠProv ide
re a
Ġre pt
og rams
OR E
u y
ĠL td
Ġweek end
ĠImm un
ĊĠĠĠĠĠĠĠĠĠĠĠĠĠĠĠĠ ĠĠ
Ġfung us
c ence
Ġan a
ĠG and
ĠAl i
Ġcl icking
h o
Ã º
Ġredu ctions
Ġprec autions
ĠAgree ment
Ġcont empl
Ġcort ex
Ġcan on
ĠA round
Ġb ibli
ĠD og
ĠIn fect
ĠH art
Ġme ats
sc hema
ri ages
cl amation
izophren ia
u ated
sq rt
Ġg y
Ġelectro ly
Pub Med
B et
R a
ĠS ay
Ġdel ib
ir ie
th reshold
Ġland ed
Ġsn akes
ĠT B
Ġab st
uls ive
Ġhar assment
ert ation
in us
ry st
pos itive
Ġcontinu ity
Ġterrit orial
Ġtransform ations
Whe ther
ĠS yn
Ġad herence
Ġad olescent
Ġburn s
ĠAng lo
ĠBanglades h
Ġret ired
ĠIm ages
Ġsp ider
Ġproceed ings
ĠS now
m aker
ĠEm ploy
ĠS ens
Ġgu est
ĠRef erence
Ġke en
Ġsqu ares
Ġnot eb
Ġanat omy
or rh
ĠE instein
Ġatt orney
icro b
Ġsched ules
Ġinst ability
Ġprim itive
ĠBit coin
J une
Ġlog s
Ġsens ing
Ġfil ed
ĠC ould
Ġman ually
Ġinter faces
Ġmedic inal
s pect
Ġappear ing
ĠSim ply
log ging
Ġr ip
Ġfit ted
pl aces
ĠHam ilton
Ġt ightly
ĠR ule
Ġmic row
ĠDis orders
ĠAN Y
ĠS alt
hes s
Ġrecogn ised
M arch
ed e
z es
Ġt et
ĠI oT
Ġper severance
Ġel astic
Ġtrag ic
ĠE ffective
Ġt err
Ġsusp ended
Ġc ake
Ġtal ented
Ġfrust ration
Ġint imate
i age
acter ia
. (
Ġst igma
Ġgr ate
Ġdocument ary
av al
Ġp ocket
es ar
Ġsc ans
Ġrelax ed
ĠU ntil
ĠUs ed
Ġ iv
Ġun lock
clud es
Ġselect ive
Ġconstruct ive
v able
ier ra
Ġfriends hips
Ġastron omers
Ġis ot
Ġauthor ized
ĠUnder stand
ĠE ating
Ġmon aster
L D
Ġw re
S V
off s
Ġex agger
Ġen ric
ĠG ospel
ĠBe yond
unt ime
ĠVen us
M c
ĠB eng
Ġinf rared
Ġli ability
Ġfl aw
ĊĠĠĠĠĠĠĠĠĠĠĠĠĠĠĠĠĠĠĠĠĠĠĠĠ ĠĠ
Ġab ortion
que ue
Ġqu oted
Ġh iring
Ġt urtles
Ġl ady
ĠS ounds
Ġal kal
f ed
Ġprol if
Ġden y
Ġcycl ing
Ġgall ons
è ¯
Ġnew er
ĠImport ance
as ers
EN D
ĠF inn
ĠAn imals
Ġmunicip al
Ġdemand ed
ĠMain e
v m
Ġfor um
c ross
ĠS ave
Ġex cer
Ġarm ies
it ives
Ġsn acks
ĠSqu are
pe red
de code
] ):
ĠArab ia
Ġdies el
Ġsupp liers
cret ion
S ol
Lay out
Ġd olph
cl oud
ours es
Ġsubject ive
pl er
Ġsculpt ure
th ree
ceed ings
D oc
ot ine
Ġbe aches
Ġbase ball
Ġgastro intestinal
ar b
Ġseiz ures
x a
å Ĳ
art z
Ġprof iciency
Ġfle e
D ig
ty p
Ġqual itative
Ġadmin ister
V er
Ġchromos ome
ed it
Ġan ts
Ġfil ament
Ġg ad
Ġd ir
Ġlaw yers
e ff
ĠExpl ain
Ġlight ning
Ġintric acies
ch at
Ġide als
ĠHig her
Ġclim b
Ġbu nd
Ġide ology
Ġintest ine
p ad
Ġtherap ists
P H
Ġthe ology
Ġs ql
ĠConnect icut
Ġ ĊĠĠĠ
Ġult rasound
Ġhyp ot
Ġsuper natural
Ġas leep
du e
es ian
Ġmembr anes
Ġass ass
Ġp ile
Ġcorrespond s
process ing
ira cy
ĠFa ith
Ġsqu ir
ĠEx press
ĠMic hel
lu g
Ġup ward
Ġun re
Ġfest ivals
raul ic
In it
F ound
p ulumi
Ġbus h
t ry
Ġseg regation
Ġax es
img ur
E duc
L L
g it
Ġmaster y
Ġcomp ress
Ġbul let
Ġpric ing
s a
Ġsal vation
Ġwaste water
g ments
Ġw and
Ġcent res
Ġl ion
Ġbe verages
ĠAn na
Ġstimul us
Ġacid ic
Ġf ox
Ġg amma
ĠSat urn
#! /
m g
ĠE R
Ġar row
Ġreson ate
enc ode
Ġsolid arity
Ġcommun al
duct or
m u
empt y
Ġpar king
Ġsc rap
le ans
ĠB lu
Ġcur sor
ĠL ank
ĠSt alin
sy mb
b ies
Ġaut h
is co
ĠBas in
Ð ²
Ġdet er
ĠCom plex
Ã ¦
Ġcomment ary
Ġd ye
ĠSk in
Ġpix el
N E
Ġequ als
im ore
Ġtra ils
Ġrel iance
Ġtour ist
ĠE at
LO G
Ġcred its
ĠSt ring
Ġport rait
Ar ray
Ġcomp ly
ĠExt ension
Ġ' \
Ġcreat ors
Ġcompet ence
Ġsubstr ate
Ġfol iage
T itle
Ġnation wide
hand le
Ġc ables
Ġcan vas
ĠG ram
sm all
Ġmitig ation
Ġun conscious
Ġlay ing
Ġadjust ment
Ġharv ested
Ġrespect ful
Ġtast es
* ,
ĊĊ Ċ
pro g
Ġastron omy
ant ry
Ġ' --
rag on
Ġcerv ical
C V
Ġcivil ian
+ '
F eb
Ġbelie ving
Ġcr ises
Ġlast s
Ġun e
A ction
Ġansw ering
cel and
Ġguarant eed
à¥ į
Ġbl ocking
ring e
Ġd irty
ĠConn ection
Ġprejud ice
Ġsex ually
Ġdivor ce
Ġtr unk
Ġabnormal ities
D ist
Ġph yl
flow er
Ġgra zing
Ġgl oves
******** ********
Ġm u
Ġsh ower
Ġcompar isons
ĠE M
Ġc argo
Ġreconst ruction
Ġdes erve
ol en
ell ers
Ġre plic
Ġassemb led
Ġd ynasty
Ġ( $
ĠOlymp ic
Ġ' <
% ),
ĠSe qu
Ġe arning
ĠG ender
ĠMult iple
ge vity
AR E
Q t
op ard
Ġstress ful
ĠRel igion
ou stic
Ġcor rupt
T E
ĠSyd ney
def ined
Ġdef icit
Ġn ights
it ated
ĠF le
Ġfather s
ĠT a
ĠH ell
Ġtable t
p resent
Ġact ed
mans hip
Ġsp rou
Ġatt raction
ĠIdent ity
P ATH
Ġbul b
kl ore
ĠPol ice
em on
bl ue
Ġkn ock
read ing
pat ient
ĠT R
Ġpar ish
Ġthink ers
Ġliqu ids
Ġr ash
ĠT ODO
we g
Ġrem n
Ġpal ace
Ġprem ium
ĠB arn
ev ol
Ġformer ly
Ġs ie
Ġlim b
ĠAlex and
L P
ĠD er
Ġbr ighter
ĠInf lu
ĠApp ly
Ġassum es
w alk
ĠCh air
assert True
en ium
ĠL ic
Ġdec ides
Ġret reat
Ġmind set
ĠO klahoma
Ġaw esome
Ġk ick
Ġminor ities
Ġpass enger
Ġimper ative
ĠBab ylon
ĠJ oe
Ġprospect ive
ur u
ĠL oc
Ġpat ron
ĠMarg aret
Ġsc ra
Ġreward ing
c ards
ĠW in
ĠN ile
Ġluck y
Ġped est
Ġtransc end
ĠH az
ĠMem bers
Ġaest hetics
ut o
ri ans
ĠWal ter
Ġstrong est
M s
O ff
li ver
ĠN uclear
Ġprevent ive
Ġunf ortunately
d type
Ġger ms
Ġrend ered
ĠIm plement
Ġdecl ining
count ry
lim it
ous ing
Ġexplo it
z i
Ġt ense
Ġball oon
Ġspot ted
Ġl ips
Ġinstall ing
Î ¼
ĠSt ructure
ĠPro per
ĠDougl as
opor osis
C ross
Ġcol oring
Ġclean ed
u pper
Ġjump ing
Ġex clusion
Ġgre ens
Ġlik ed
ĠMag azine
com a
Ġfun c
Ġcompos itions
ĠCh anges
Ġmin istry
? ?
o os
Ġc in
est ial
ĠS audi
ĠPro duction
ĠGet ting
Ġas bestos
Ġconv ince
Ġinterpre ting
fam ily
ĠTh ailand
Th ree
ĠProg rams
Further more
ĠHe at
Ġethnic ity
Ġsl ip
ĠB os
Ġreview ing
h alf
ve ctor
static method
ch anged
Ġab oard
Ġj e
Ġinter disciplinary
ci ously
Be ing
Z E
Ġpot s
Ġdescript ive
Ġsc ary
s ky
Ġle uk
ĠPlan et
ĠB or
Ġdef ensive
ĠFl ore
A pril
C ong
Ġunderstand s
Ġaccident ally
ä º
ĠPar ks
Â ½
Ã ł
ĠF oot
Ġprodu cer
Ġf right
ou ble
ĠR ot
ri ors
Ġen roll
ĠLe v
Ġreflect ive
agon al
ĠNap ole
Ġinn ocent
ĠPh arm
edi ence
ĠD ead
Ġbl ade
ang a
ĠExper iment
h n
ĠS H
Ġkn ife
Ġsan itation
ĠDat abase
Ġmet icul
Ġfif teen
ĠO k
ans k
Ġra cing
Ġspark ed
ĠB rig
Ġd urable
ĠCh annel
ĠE ye
Ġref lex
Ġconver ting
f i
Ġp ound
" ].
ĠĠĠĠĠĠĠĠ ĠĠ
ĠM RI
Ġunder neath
az ines
ĠFreder ick
ra its
Ġceremon ies
acter ial
ly wood
Ġs ocket
Ġad here
Ġpere nn
Ġperform s
Ġgas oline
ĠO ak
Ġback up
Ġmot ors
Ġauthentic ity
us age
ĠAp ache
Ġprohib ited
Ġaccompany ing
Ġd orm
Per haps
Ġsw ift
ĠPre pare
Ġd awn
Ġwe ed
ĠO ri
Ġsmart phones
Ġadequ ately
Ġpadd ing
v ideo
Se pt
ĠB ishop
ram es
Ad ditionally
is l
Ġh ired
Th ink
ec hes
Ġsurprising ly
ĠR F
ç Ķ
Ġemb arr
Ġred irect
oth y
est ones
Ġp ays
c op
Ġre use
ĠL ive
ĠS S
ĠB rand
Ġinf est
ĠEmer gency
ĠPh oto
Ġsimilar ity
Ġ ----------
im eters
Ġsub mar
h um
Ġfl ip
app lication
on i
the ta
it o
ch anging
Ġdel ays
Ġur inary
ĠReg ister
ve c
ir i
ag h
ĠEd itor
Ġs ins
Ġreef s
at en
id ated
Ġinf erior
head s
ĠWe ight
Ġviol ation
oc ene
Ġdep ths
re r
j e
Cons ider
Ġexch anges
ro d
Ġdef orestation
ĠCol omb
P ort
ĊĠĠĠĠĠĠĠĠĠĠĠĠĠĠĠĠĠĠĠĠĠĠĠĠ ĠĠĠĠ
ĠSaf e
D av
w ed
Ġment ions
Ġcelebr ations
exist ing
Ġveter ans
ĠSol omon
iqu ity
cul osis
Ġund oubtedly
Ġterm inology
ul us
Ñ ı
Ġens l
ĠL O
Ġdis charg
Ġco operative
Ġanticip ated
Ġbo iling
ĠD ict
Ġinj ust
Ġhob by
R T
Ġo un
ĠR ange
ax on
az y
qu estions
Ġtric ks
ĠG M
ĠB ron
ĠMc G
Ġmer ge
ru le
Ġref use
ĠSol utions
Ġprev ailing
Ġapp ar
ĠCol umn
O h
Ġt mp
ĠD akota
A ust
Ġp i
Ġcommission ed
Ġancest ral
is ure
ĠT her
ĠBi ological
tra ck
W ork
Ġd aughters
ĠD ental
p ine
Ġsp ill
Ġfart her
IV E
Ġciv ic
ĠVis it
Ġdepos it
Ġstro kes
Ġsh r
Ġgovern ed
Ġ Ù
Th anks
Ġd ur
oth ic
Ġpass words
atur ated
ad ers
Ġbroad ly
ĠMan ufact
Ġswe at
Ġaccel eration
Ġclim ates
Ġsim plicity
S te
Ġap ost
Ġcryst all
ir ts
Ġpract ically
Ex per
Ġten ure
G P
ĠM un
Ġtext books
ĠCit iz
Ġdev iation
ĠT oo
ct ica
Ġcogn ition
ĠĠĠĠĠĠĠĠ ĠĠĠ
ĠR A
Ġstress es
Ġimp art
Ġbutter flies
Ġse ism
Ġad ject
Ġher bal
ĠExpl ore
Ġcannab is
Ġright eous
Ġpil grim
ĠAntar ctic
p rom
Ġtra it
ĠWorks he
čĊ čĊč
Ġattend ance
Ġneed ing
Ġrebell ion
Ġthe atre
Ġco h
class method
ij uana
ep rint
ĠMarsh all
ĠSt age
ĠAnn ual
Ġcub ic
Ġh ay
ĠAmeric as
Ġv ascular
Ġr if
ĊĠĠĠĠĠĠĠĠĠĠĠĠĠĠĠĠ ĠĠĠĠĠĠ
Ġperm issions
ĠD ry
ĠD I
els h
er ion
Ġge ological
ĠÂ ±
ĠExpl oration
ĠBro ther
ĠAct ive
Ġprospect s
s ocial
Ġdecor ative
l ie
ĠK u
Ġdispro portion
ĠUn less
ĠInt rodu
Ġexperiment ation
thon y
Ġweaken ed
Ġrec ess
Ġnon profit
ĠMan ual
ĠTechn ical
Ġtr illion
pro perties
Ġfun ny
ĠB run
Cont rol
reg n
ĠCom prehens
Ġsmart phone
Ã£ o
Ġeleph ant
Ġcl ot
stand ard
Ġnas al
Ġoverse as
Ġtraffic king
n osis
ra vel
Ġgra pe
uck et
Ġhost ing
Ġfl ights
psy ch
ĠL oad
Ġdis ruption
Ġtric ky
Ġtomat o
ci o
D NA
Ġl ag
ĠH ug
ĠW olf
Ġbl ending
Ġdetect ing
Ġdis ciples
Ġsur f
Ġbelong ed
int o
box es
Ġsl ice
ĠComp et
ĠArchitect ure
a uses
um en
Ġlapt op
ES CO
ock er
Ġton nes
ĠAcadem ic
ĠEn h
Ġth ou
ĠPr ice
ii i
ĠDraw ing
sh ould
Ġa ver
ĠPen insula
Ġdis cre
Ġcru c
arr ing
Ġauthent ication
Ġwhere by
Ġrecogn izes
Ġcalcul ating
å ħ
Ġarg uing
En vironment
Ġscan ning
or ia
ĠL uke
Ġtax on
ĠPer u
l it
Ġsk etch
ĠG ab
Ġ æ
Ġd ots
Ġqu iz
ĠPu erto
Ġsome body
Ġfl ora
V A
Ġprotect ions
Ġstri ps
Ġdisadvant ages
W illi
ĠHT TP
Ġmultip ly
b irds
t ol
ing ham
ĠE ver
ĠSw iss
ĠUnivers al
threat ening
Ġat he
Ġout s
ĠV erm
ĠO d
Ġdeal t
s d
ĠPol itics
ah o
ĠD ra
Ġbl u
ĠWe ather
ĠP ow
ĠG ib
iar ism
Ġfemin ist
ĠF ortunately
Ġfo am
y g
Ġdecl are
ST R
n as
Ġdark er
ĠMult i
S k
Ġim plicit
Ġdeterm in
L ook
Ġant im
Ġeleph ants
as ync
Ġprompt ed
pt ical
ub ric
br ate
: %
Ġpet ition
Ġreson ance
ĠCE O
Ġpropag anda
sc ope
is ive
ĠR O
Ġco ach
Ġhol low
Ġfract ions
Î »
set up
Ġgest ures
Ġglobal ization
Un iversity
Ġeas iest
Ġlif ting
Ġr ush
T im
ĠQue ens
Ġcompl aints
Ġhuman itarian
on ed
Ġwra pped
ro st
ĠT s
ĠSt op
Ġaqu arium
Ġlike wise
ĠPsych iat
in is
Ġthr ust
ĠMon itoring
Ġhum ble
Ġimport s
Ġbi op
Ġle verage
Ġut ils
ĠTr uth
Ġkil omet
ĠB ed
op ing
Ġra mp
om orph
Ġcr ude
rad es
Ġbrush ing
ĠOther wise
Ġrese mble
Ġg ri
b irth
it i
ĠAll ied
reg ion
Ġrecip ient
cho ice
C s
m issions
Ġspecim en
Ġdistribut ions
er get
Lab el
b ig
te x
oun s
Cont in
Ġpix els
Ġfract ure
ĠS A
ĠQue bec
O ld
Ġexhib ited
Ġl aughter
ĠT ob
Ġst d
Ġsynt ax
ĠÂ »
Ġb ass
ĠMan ager
Ġinstruct ors
w al
Ġth rowing
oph il
Ġdisturb ances
ĠOr leans
ĠSud an
u ced
Ġtim eline
in os
Ġdi agrams
" '
} \
v ic
ig hed
Ġcont est
ĠC ov
Ġde af
R un
Ġth ir
path s
Ġbreast feeding
ĠNon etheless
f inal
Ġsulf ur
it ably
Ġrece iver
Ġsec uring
ĠSer ver
M en
ist a
Ġenc rypt
Ġbuck et
Ġsou ls
Ġtestim ony
Ġi P
Ġple asant
St and
ĠT ell
Gl obal
Ġj azz
Ġmat ched
Ġembra ced
Ġex ports
Ġblood stream
ware ness
Ġu pl
Ġmem orial
Ġbad ly
ĠC C
Ġshort age
se a
Ġparad igm
p aper
pl ants
Ġb end
Ġto es
Ġcount ed
Ġviol ations
ĠDom in
S ch
Ġp rize
is y
Ġview points
ĠFed eration
Ġen erget
ĠV R
E qu
m ac
ĠI celand
Ġback ward
Ġmus cular
Ġreact or
ĠN otes
ĠNe v
Ġp ear
ĠB and
There fore
Ġev ap
Ġtow ers
Ġaspir ations
Rel ated
ĠW ang
Ġout lines
con dition
Ġpress ed
Europe an
---- -
am on
Ġrestrict ion
AN T
ĠN elson
Ġscar ce
Ġt une
Ġbelie vers
ĠArgent ina
G raph
ĠPro blems
Ġplanet ary
ĠRec ords
ĠâĨ ĳ
ĠCompan ies
Ġmultif aceted
j u
Ġter restrial
od ia
Ġpe aks
ĠDel hi
Ġsh arks
ĠAl ber
Ġcol i
ph ase
ĠHow ard
f requency
Ġlab s
Ġcyl inder
Ġmim ic
R ES
Ġcor rosion
Ġf ocal
op a
Ġcred ibility
Ġenterpr ises
Ġspect acular
Ġbo ot
Ġcontamin ants
ĠP TSD
om nia
ĠProg ress
Ġstew ardship
er vers
Ġseaf ood
S chool
ĠHou ston
ĠK y
Ġirrit ation
ĠNum Py
Ġut ilities
Ġrepet itive
Ġhead quarters
Ġimp ly
hist oric
Or gan
ĠDown load
st ory
ĠV I
ĠĠĠĠĠĠĠĠ Ġ
Ġman eu
gen erate
Ġpron unciation
ap es
exp ression
ĠR at
Ġcig arettes
Ġmultipl ication
ĠF ast
ug s
Ġhe ights
Ġlog in
ĠIn g
ĠPro ceedings
Ġdin osaurs
Ju ly
ag ic
heum at
/ .
r l
Ġa cre
ĠCon fig
th ink
ĠF ramework
(' \
Ġod or
ill ary
ky o
Ġdon or
err ors
Ġhost ile
ol ics
Ġ$ $
Aug ust
Ġ iod
az ed
Ġtruth s
n utrition
ul ph
Ġaff ection
Ġmon opol
ass oci
Ġpay load
Ġround ed
Ġdrag on
S l
Ġthe or
at ar
ĠP un
ĠChrist opher
Ġarch ive
RE E
ĠR ace
Ġdep ressed
ĠH ud
Ġmar ijuana
Ġcoc onut
f alls
itud inal
d m
Ġconclud es
per iod
The ir
bt n
Ġlock ed
Ġlist ened
ĠSt rong
Ġtur tle
ĠFin land
ou p
Ġar che
W omen
Ġimag in
Ġce iling
Ġintr insic
Ġmethod ologies
Ġrefuge e
" ?
ĠK a
ĠCur riculum
ĠMont ana
ĠEmb racing
ro it
cess ion
Ġcast ing
Ġin con
ed ges
ud ge
cl ock
ord on
to x
Ġvis itor
d ose
amb oo
Ġp ist
ig raph
Ġlim estone
Ġhost ed
e ur
app ly
Ġpl ague
Ġun predict
Ġre per
Ġ( -
Ġaw a
doc ument
be it
Ġarg parse
B re
Ġt asty
Ġdown stream
ĠB ull
Ġpul monary
Ġnu ances
tim estamp
i w
Ġw ore
g age
ĠP ed
Integ er
Ġsh rubs
cell ular
ĠA CT
ĠM ember
ib les
Ġcl ause
ut able
C ourse
ĠR ow
Ġdecor ated
p k
ĠS ad
ach ine
Ġrun off
Ġcul min
ul ous
Ġser um
Ġveterin arian
ith metic
pr ice
br ates
Ġsimpl est
Ġfl ame
Ġsh ark
Ġdis inf
Ġact or
Ġinc ub
Ġterm ed
Ġpersist ence
Ġ ic
st ones
ĠAl cohol
ace ous
d river
Ġrepos itory
ĠCo ord
Ġrecre ation
Ġy ards
ĠC hem
Ġve in
Ġp m
ĠI BM
ĠDef ault
Ġper secution
Ġlearn s
ĠOcc up
n x
ĠC atal
ĠM R
Ġdiff ering
Con text
od ont
Ġcrypt ocur
Ġheav ier
ĠT ro
ĠPub l
Ġtou ched
ĠConst ruction
Mod ern
Ġsubt ract
er red
Ġl amp
Ġbi ography
Ġsevent h
work ers
Ġconst ell
Res ult
b eta
ĠT u
ĠHispan ic
ĠL ang
ĠInit ial
PO ST
Ġkne es
Ġsoon er
Ġoccup y
Ġsuccess es
ĠSt ew
Ġve gg
Ġturb ines
res ol
ĠApp lying
ĠPortug al
ph y
Ġd ams
Ġw are
Ġvac ation
Ġ' %
Ġfe eds
b ecause
Ġpolit ically
mod ern
ĠDo ctor
Ġpul p
Ġfisher ies
? !
Ġexp on
R ad
Ġp ools
Out put
s erv
Ġin appropriate
ĠAp ollo
Ġdispl aced
Ġen vision
Ġhigh way
en ic
Ġreason ably
ĠProgram me
Ġf iring
Ġfun gal
Ġaccel erate
Ġempower ment
ograph ics
Ġlon gevity
ĠHop kins
Ġcar riers
Ġsign ing
Ġimmig rant
f ont
iv ated
ple ted
Ġpsych ologists
A ng
Ġd ip
Ġav iation
Ġneed les
Ġreinfor ced
Ġno qa
Ġearn ings
Ġinform ative
Ġu b
Ġintern ationally
fl ag
last ing
Ġt ended
t uple
Ġelim ination
ĠMalays ia
mon t
ĠA BC
load er
ĠEthiop ia
Ġb ru
Ġe ll
s cient
ĠTh or
ĠFor um
Ġexc el
T otal
Ġpro active
ĠHy per
Ġcompassion ate
og ly
ĠFest ival
bre ak
Ġp ave
uten ant
En ter
mit t
ĠScript ure
Ġse aled
Ġen rolled
- %
Ġt ide
Ġbo il
ĠGu inea
Ġcommerc ially
ĠTechn ologies
udden ly
ĠR on
she et
Ġanch or
ĠE C
ĠD ur
I H
Ġcour tesy
Ġmist aken
Ġsur render
ĠP ent
Ġair port
D T
time out
ĠShe l
Ġacqu iring
ĠA B
alle l
Ġfract ures
Ġerect ed
ĠP oor
ĠCr ime
ĠN ear
Ġmar ry
Ġdepict ing
or ations
ĠMc K
oo f
const ruction
ĠE ric
ĠAn at
ad ic
plet ion
Ġc ens
Ġfree ze
Ġcolon ization
Ġmag azines
Up date
Ġantib ody
Ġphosph orus
U I
Ġh ook
ĠC as
Ġfin ite
Ġcomprom ised
Ġref eren
head ed
Ġproport ions
organ ic
he at
B rit
exp ensive
Ġhe ct
un its
ĠCh ron
ĠTra il
se ctions
ediat rics
Ġmon uments
ge x
Ġsp awn
neg ative
academ ia
f c
Ġaster oid
w atch
Ġeth n
ĠEval uation
Ġcivil ians
ij ing
Ġan th
Ġsn ipp
Ph one
Ġinherit ance
ĠI F
ĠSe attle
Ġrhyth ms
Ġpurch ases
Ġdef ence
Ġinv iting
Ġdetect or
Ġed ible
Ġs aves
Ġdecl aration
Ġaer ial
spe aking
ĠV ision
Ġex terior
Ġcle ans
ĠCP U
t hens
Ġs isters
Ġn esting
ĠP ick
Ġmanuscript s
ot or
Ġ[ [
Ġamph ib
Ġcontin ents
est yles
Ġver bs
ĠStrateg y
Ġsub set
Ġcra cks
Ġdestro ying
qu er
Ġfront ier
Ġcrit ique
ĠLike wise
Ġbub bles
Comm and
id ating
Ġpro sec
o i
Ġstick y
isp ens
het ical
Ġfe ast
st orage
it at
Ġdifferent iation
f erence
Ġauto immune
anc ers
resp ons
Ġb ites
ĠPalest inian
################################ ################################
ĠAgain st
ixt y
ast ype
ĠExper ience
ĠRob inson
Ġwel ding
ĠIsa ac
it ol
um ble
Ġempower ing
: .
P arent
Ġin coming
Ġsc hema
ĠEx change
Ġport folio
Ġactiv ism
Ġpost erior
Ġhand ed
ĠSum mary
æ ĸ
Ġg ates
Ġsw itches
Ġath lete
ĠAnd roid
ĠÎ ¼
ĠAntar ctica
ĠâĨ Ĵ
Ġindirect ly
Ġan emia
ĠB irth
met rics
ĠS N
Ġ" --
Ġcor related
âĢ ²
Ġfaith ful
Ph ysical
olith ic
as i
Ġme g
Ġenjoy ment
Ġto kens
Ġpun ish
Ġmicrosc opic
P op
Ġpod cast
Ã© s
ose xual
Ġre velation
Ġv oted
ĠCy ber
d ra
Ġdevelop er
Ġreg im
Ġdes erves
ĠSus an
ĠC B
ab y
ĠClin ic
ol is
Ġc sv
Ġhe d
ple asant
} }
ul atory
Ġinter play
ar ound
Ġann oy
Ã¡ n
P os
ĠF if
Ġremain der
Ð ¼
UL L
Ġwilling ness
ĠB art
Qu estion
Ġjust ified
sc ores
( ['
b us
ĠAl g
Cont ent
f ires
Ġex h
Ġrespect ing
Ġcoord inated
En c
ĠEx am
Ġastronaut s
S uch
Ġn ov
Ġtechn ically
id is
Ġconvin cing
th irds
Ġ" __
.. /
rim ental
ot te
ĠBalt imore
ĠMon itor
Ġspin ning
od us
Ġshowc asing
res et
Ġcomp ressed
Ġinv alid
Ġcreat or
ĠPict ure
ĠM ort
year s
Ġspread s
cript ions
Ġreinfor cing
P ass
v est
Ġall iance
Ġend urance
Ġlo vely
ĠFood s
Ġencourage ment
ĠBelg ium
ate ur
Ġtraject ory
Ex amples
Ġdifferent iate
Ġpet roleum
Ġcand y
h ill
Ġsick ness
ell i
Ġprov ing
Ġhapp ier
ĠApp lied
oll en
m ember
ĠM L
Ġcommit ments
Ġtravel ers
Ar ch
Ġin complete
Ġfast est
t ar
Ġsuccess ion
ĠIndividual s
Ġw oven
Ġvari ance
Ġimp ose
Ġemit ted
Ġg em
ak y
Ġdec imal
hel ial
act ly
ĠV acc
ĠCommun ications
Ġsch izophrenia
Ġescap ed
Ġdiss ertation
Ġb acks
Ġspiritual ity
ĠMo z
rib ing
Ex p
ĠPop ular
en vironment
ĠConvers ely
EL ECT
ĠRober ts
Ġv et
Ġhe x
Ġfin ishing
ĠChall enge
Ġpain ter
Ġl ing
Ġfluor ide
Ġaccount ed
Ġbron ze
ĠD eg
op ause
ĠL en
Ġdom inance
Art icle
c uda
ĠS in
Ġposition ed
with out
Ġ{} ".
b efore
Ġgot ten
Ġrecord ings
rat ulations
Ġcontin ental
Ġcoll ision
Ġb unch
ar in
Ġcalcul ator
Ġassist ed
ĠI R
__ ,
Ġimbal ance
se min
ere rs
Res ource
Ġch ord
re tt
ĠL am
Ġun rest
Ġwith stand
ĠImport ant
Ġcons erve
uc ing
com ed
Ġsk et
Ġmar itime
Ġposition ing
ĠV arious
Ġthreat en
re ne
bol a
Ġunc overed
ĠT un
Ġgradu ates
Ġconsult ing
Ġremind s
Ġmer it
Ġparalle ls
Ad ditional
vari able
ĠEng aging
Oct ober
_ (
Ġeleg ant
Ġl ad
ĠS ierra
ĠUS B
Ġland mark
w ick
w ikipedia
Ġcolle ague
Ġprompt ly
Ġru ins
re v
Ġarbit rary
pro gram
ĠBe aut
S ervice
Ġgrate ful
f illed
Ġch i
ĠSt yle
Ġ( (
ĠE ra
y cle
Ġvolcan o
ro b
res olution
ĠVe get
ĠC ris
Ġ" <
ĠEx c
M icro
Ġup grad
br ush
Ġimmers ive
ĠC ognitive
ĠB enny
Ġback yard
Ġconver ts
ĠM oney
Ġdet rimental
Ġvine gar
Ġa rose
Ġaud itory
Ġbutter fly
Ġsymbol ism
ĠOper ation
Fil ter
à¤ ¾
Ġopp onent
Ġa pt
Ġrout inely
Ġn ests
Ġmeth yl
an ical
P rodu
N OT
and al
ar king
ĠP ul
Ġlo ops
Ġwitness es
Ġb id
Ġprov incial
Ġpol es
Ġparagraph s
Un like
Ġexperiment ing
un ique
m ir
ĠInst itution
Ġinn ate
ĠReg ardless
ĠIn put
p ox
S outh
Ġincorpor ates
TY PE
or o
Ġco efficient
Ġmed i
Ġdispar ate
Ġthe ft
Ġa wards
Ġprop het
Ġlib ert
um m
Ġremember ing
ĠI M
ĠI g
Ġair plane
ĠP ale
ĠBre ak
Ġbasket ball
Ġex clude
ann ah
Ġrem ot
Ġlib eration
ĠObserv atory
ĠL ith
ĠConst ant
> ,
Ġvis c
Ġind ispens
Ġmush rooms
] +
ly n
Ġun related
Ġqu arters
ĠContin ue
Ġwavel ength
ĠL ate
Ġleg ends
med ia
Ġpsychiat ric
Ġlaw su
Ġbond ing
ub a
ĠRel igious
Ġcel estial
ot ics
Ġth under
Ġpop ulated
icrob ial
U B
Ġh urd
Ġres in
l r
ÃŃ a
Ġaccum ulate
Ġque ue
Ġintent ional
ĠB att
ĠPal ace
Ġcatast rophic
S erial
ĠH PV
Ġab bre
il age
Ġrisk y
Ġsafegu ard
Ġfacilit ates
f rac
Ġfast ing
ĠSte ve
ĠB Y
Ġmir rors
ut ation
hy th
ĠColumb us
P ress
Ġb ent
ch y
Ġd ressed
id ency
ĠAn thony
Ġemerg encies
ocr ine
Ġspok es
ĠP erm
ĠHarr is
p ick
Ġtransl ations
Ġt ones
pl oys
Ġw ip
Ġn m
ĠH yp
Ġrest oring
Ġaccum ulated
er ican
Ġaccomplish ments
ĠAltern atively
ĠW elsh
ut t
Ġspecific ations
d it
ĠB urn
Ġbeautiful ly
} "
ist ed
Ġsu its
ĠH E
mem ory
Ġaggreg ate
ĠM ix
Ġcommod ity
Ġgra pes
ĠIn sp
Ġback ed
Ġtra ders
Ġpestic ide
od a
n ull
Ġroll ed
Ġsl opes
Ù Ĩ
Ġest rogen
Ġgamb ling
F unction
ĠD elta
dir name
Ġremov es
Ġtra ps
Ġserv ants
Ġmig rants
Ġrom ance
ĠS ky
(). __
Ġt icks
Ġm arc
Ġpost ers
Ġentreprene ur
oglob in
ansk rit
Ġjournal ists
in ators
Ġp our
Ġfulf illing
Ġun stable
Ġret ro
Ġiniti ate
ĠS ah
Ġmake up
Ġgrass es
ĠVi enna
Ġmin us
ĠCom plete
Ġpass ions
ĠLet ters
in ical
Ġgl oss
ĠInvest ig
Ġdelight ful
Ġproject ion
ĠAfric ans
iv o
occ up
æķ °
Ġle isure
arth a
l ad
ĠD anish
Ġunder going
Ġcoal ition
b uffer
ĠE ld
Ġqual ify
Ġtransist ors
è ¿
G s
Å «
ĠS ent
Ġad s
__ )
Ġteam work
ĠDes ert
Ġgar bage
ĠFor ces
Ġparent ing
Ġquestion ed
ĠEns ure
l as
b inary
ĠP le
} '
ĠK id
Ġlith ium
Ġfe ared
Ġspan ning
in ctions
oc hemistry
P ER
ruct ions
Ġchromos omes
c pu
Ġhit ting
Ġdefin itive
Ġd ub
Ġform ulas
Ġtim eless
ĠIncre ased
EX T
å ®
uff le
ĠPsych ological
osa ic
Ġequ ip
Ġimpro per
ĠAl most
Ġaccess ing
ĠCommun ities
ic us
Cont act
ĠP and
ĠTh inking
Ġkind ergarten
ĠInnov ation
Ġv oc
Ġrot ating
comp at
Ġob ey
__ ()
Ġphys iology
sw ith
Ġult ra
. **
. [
N C
Ġ' _
ĠNep al
Ġwed ding
Ġgr inding
Ġam end
Ġbra ck
ĠKeep ing
oster one
Ġp df
Ġchick ens
Ġyog urt
sum mary
Ġstead ily
J ew
Ġcompr ising
Ġcong ress
icular ly
Ġsecret ary
Ġgener ous
Ġg olf
opt ional
Ġm ate
en viron
is ers
Ġpol yn
Ġr ated
Ġaccount able
Ġvulner abilities
rav iolet
NA SA
Ġt ours
he x
Ġam endment
ĠI L
oc key
Ġhel ic
ĠB erg
Ġstud io
Ġeru ption
Ġfab rics
Ġtr an
Ġeru pt
ĠEngine ers
ĠV ar
. /
Ġrob otic
cor rect
ĠB rief
Ġinvestig ators
ĠS W
ĠD h
Ġimpl ants
Ġrepet ition
ast ical
ĠLead ership
ĠX ML
Ġconsequ ently
Ġpreced ing
l iness
Ġ" -
Ġas yn
Ġun h
Ġup hold
Ġturb ine
Ġy esterday
Ġte asp
ĠArk ansas
S ystem
Ġsc aling
Ġinherent ly
ĠRep orts
Ġspr ings
Ñ ĭ
pub lished
Ġst ance
ĠF ab
ort ing
Ġreal ities
pr ising
Ġreal ism
Ġrespons ive
ĠOrig ins
Ġtw in
Ġtransl ates
Ġcompr ise
Ġwor m
any on
Ġperf ection
Ġreview ers
Ġep ile
Ġhur ricane
ĠT ar
ĠAdd ress
Ġdisplay ing
Ġforg iveness
m any
il k
em ade
) +
Ġt in
ĠSe ven
s afe
Ġaccel erated
Ġsc ared
Ġeditor ial
Ġw rist
Ġun pleasant
C ore
Ġes oph
ĠN AT
Ġappar atus
ĠG ate
du p
p ix
ct ory
ĠF ROM
ĠCh ris
he im
D escription
ĠR io
worm s
A IDS
E arth
Ġdet ox
Ġchar ter
Ġwel comed
Ġcav ities
Ġsim ulate
Ġarch ives
ĠC rown
Ġimag inary
ph p
ĠP ic
ĠDe b
-------------------------------- ----------------
Ġad orn
Ġancest or
param eter
Ġmotiv ations
Ġnan op
Ġrou ter
T T
Ġpredict ing
Ġrobot ics
G I
L ink
ĠLaw s
Ġk ills
ĠCamp aign
Ġprov es
Ġfil tered
Ġscript s
weg ian
ect ing
ĠMin or
pack age
n ings
Ġrel ay
ĠDon ald
Ġk et
pl anes
alth ough
Ġreven ues
e cess
Ġcorrespond ence
Ġp izza
Ġor che
Ġhyd raulic
S F
Ġb oss
Ġdefin ite
Ġdisturb ance
worth y
Ġref ining
Ġcab in
bu ilt
Ġsp rink
ĠCommon wealth
ad os
all ed
Ġup right
start swith
Ġhun ters
Ġdeliber ately
Ġcompat ibility
ĠPl ate
Ġund erest
ĠMot or
ĠEc ology
V E
Ġpl um
Ġuter us
ĠK arl
ĠSym bol
Ġsovere ign
Ġb other
Ġfilter ing
Ġg rip
Ġend emic
Ġrepl ication
s ingle
Ġpriorit ize
Ġlever aging
l iter
Ġmar ble
Ġkilomet res
er able
Def inition
Ġfib re
ĠGall ery
ĠA wareness
ĠC M
Ġrank ed
FA ULT
ĠSh ah
ĠProduct s
Ġnot ions
ĠWork ers
% ).
ĠF u
Ġaven ues
Ġn aked
Ġsp iders
Ġper taining
Ġdev otion
Ġsum mit
Ġsculpt ures
Ġarr iving
Sept ember
ĠC over
ph an
ĠCh ronic
ĠHar bor
ĠUp date
ric ula
gener ative
Ġaim ing
trans mit
ĠS ide
Ġmount ing
ĠT arget
ert ility
Ġmerch ant
ĠPl ato
Ġlux ury
ex ception
ĠEvery thing
Ġathlet ic
V ari
Ġcyl ind
Ġval ves
ĠAl fred
B uild
Ġfinanc ially
Ġinject ed
Ġindispens able
it uted
ĠM ercury
Ġcoron ary
down load
ay an
Ġinvent ions
Ġfort une
ic ient
ĠArt ificial
Ġ ì
Ġcent r
Ġpsych ologist
Ġradical s
k n
Ġro pe
ĠTransport ation
Ġon ions
ĠO ral
ĠIntern al
Ġpil ots
ĠA venue
Ġclin icians
å ¤
st ick
Ġparas ite
Ġc iting
Ġdepos ited
Ġflo ors
ĠN am
Bl ock
pl ication
ĠCl inton
Ï Ĥ
col ors
Ġeth anol
deg ree
Ġsm iled
Wh ite
ĠL A
Ġpanc reat
Ġin expensive
ĠY ang
Ġstreng thens
Ġlifes pan
Ġen ergies
o ic
Ġdig its
Ġvacc inated
Inst ead
Ġgen ius
Ġn ails
Ġclin ics
ĠSupp ose
ä ½
Ġth irst
car bon
Ġcar rots
Ġinhab ited
Ġhorm onal
ĠA th
Ġunit test
m un
am ount
ĠPrinc eton
lic ted
ĠHud son
m ess
Ġsy rup
ĠAl an
Ġuns ure
Ġp ic
Ġsystem atically
Wind ow
a ic
Ġengine ered
ĠTe ach
Ġste pping
ĠT ower
uss els
Ġdehyd ration
Ġmotif s
c over
Ġlight ly
ĠBapt ist
Ġn ail
Ġcont ag
add r
valid ate
g reat
Ġatt ent
čĊ čĊ
Ġendeav ors
ĠSil ver
ĠT el
Ġing en
Ġrab bits
ĠD escription
Ġwin ner
Ġbip olar
Ġl oses
O H
Ġg rie
Ġad renal
ara oh
Ġbl ades
ion e
Ġnever theless
Ġre nal
Al most
ĠIll ust
Ġobsc ure
ogene ous
Ġprob able
Ġpurs ued
Ġco herent
ĠPr iv
Ï Ģ
ĠArt icles
ĠT ip
ĠRail road
Ġl ubric
B s
ĠSub st
Ġactiv ist
Ġproport ional
Ġcig arette
ĠD iversity
pect ion
Ġpot tery
Ġhor ror
ĠSub ject
Ġcle ared
Ġneg lected
Des ign
Ġnational ism
h ou
Pub lished
Ġw ard
Ġwork out
Ġrepe ating
Ġconfident ly
Ġdece ased
f ten
ĠMor gan
Ã¼ r
e an
ĠLank a
P rim
Ġsew age
Ġcompet ent
ĠJu an
Ġcorpor ation
Ġ[ -
Ġevalu ations
ĠJ os
Ġbel ly
Ġsuscept ibility
Ġkey words
iv ial
Ï ĥ
n u
å Ń
Im port
Ġblo oms
ĠCath olics
R ight
Ġenact ed
Ġh inder
Ġsw ing
Ġcommand ed
S pace
Ġdep osition
ĠA le
Ġcommit tees
Ġemp owers
Ġrat ings
Ġlat itude
aware ness
Ġenl arg
Ġmat rices
Ġintention ally
Ġmas cul
Ġenerget ic
Ġcont ing
Ch ina
Ġe lic
Ġshad ows
Ġart illery
gr ass
Ġsh aft
Ġplay ground
ĠLiter acy
ĠProcess ing
om ething
ĠNev ada
as ury
im ag
Ġexpos ures
r b
N G
ĠZ one
ĠAt hens
Ġg i
Ġqu eries
ed a
ĠUN ESCO
Ġrecogn ise
Ġb arg
ĠY ale
g el
Ġsens ations
ĠMor ris
ĠT itan
r ise
Ġsh ades
Ġmar row
an ning
Ġdown ward
Ġbrain storm
Ġ Å
Ġproject ions
ĠOver all
Ġcred entials
N ET
Ġcaut ious
D D
e very
Ġhand les
ĠSet ting
Ġportray ed
ĠJoh ann
per cent
Ġsad ness
ck ed
represent ed
Ġdecent ral
ĠSt reng
pat hetic
Ġdi ary
Ġdi abetic
Ġdro pping
Ġfertil izers
ĠRand om
ĠE lements
Ġbl ur
k ernel
ĠB ry
ĠE gg
Ġco zy
ĠAd ult
Ġur ge
Ġwork flow
bl og
Ġreg imes
Ġsal iva
bl ank
Ġrich ness
Ġgall ery
č ĊĠĠĠĠĠĠĠĠ
Ġspir al
Ġfrust rated
M al
Ġtra dem
ĠCan al
ĠProv ince
le af
Ġlabor atories
on ian
Man ager
p hen
â ķ
ĠB eth
ĊĠĠĠĠĠĠĠĠĠĠĠĠĠĠĠĠĠĠĠĠĠĠĠĠĠĠĠĠĠĠĠĠ ĠĠĠĠĠĠĠ
Ġglac iers
V AL
Ġmid st
Ġdig ging
âĢ¦ âĢ¦
ref erence
Ġc ad
qu ant
Ġrespond s
se cret
Ġp ork
Ġneg lig
of ten
Ġquick er
top ic
ch t
ap hy
bs ite
Ġh tml
Ġignor ance
b earing
Ġm arsh
ĠAct s
effic ients
ĠJour ney
ĠJ osh
it ous
al ion
ĠSt atus
ĠD im
Ġbu zz
Ġrect angular
Ġfol klore
Ġver ification
L Y
ĠCle ar
elect ric
ĠN ag
int end
Ġgu y
gen eral
Ġf ence
Ġb aked
ĠEgypt ians
Ġmart ial
ĠGe ographic
Ġjuris dict
Ġceram ic
ĠC BD
ex c
Ġhop efully
bour ne
Ġout ward
Ġhad n
Ġco il
ĠCre ation
ĠBe ijing
Ġmenstru al
Ġgu ys
Ġrep airs
Ġdel ving
Ġdis crete
Ġfle w
Ġlim itation
ĠC row
ĠM B
Ġbehavi ours
ĠD ynasty
ens ation
own ed
ĠNot ice
ĠIdent ifying
ĠD ream
a verage
p ent
ain ted
ĠH R
Ġind ul
Ġtrans gender
Ġsk learn
Ġdimin ished
bet ween
Ġst ats
Ġgl ad
be y
ĠPr ivate
Ġjournal ist
Ġfro gs
__ ":
Ph ot
Ġcur ved
Ġph il
ĠPh oen
Ġcham bers
ren ces
Ġsouth west
Ġlegend ary
Ġwor ries
Ġstim ulating
ic ion
h icle
ic he
res ources
ĠPh ill
Ġabol ition
re search
Ġobs erver
ĠOrgan ic
N orth
ĠC anyon
ĠEth ics
ĠColl ins
f uel
Ġbe ads
ract ice
Ġsen iors
Ġdefic iencies
á ¸
Ġl ively
ĠI l
ĠP ages
As k
ĠOffic er
T ree
ĠM ol
Ġcontribut ors
Ġsearc hes
Ġoff shore
ext ract
ĠInd ependent
Ġmass age
train ed
cc oli
ĠL aur
m esh
t k
level and
ĠAnton io
ĠM aj
Ġmonit ors
Ġexpend iture
la very
aunt ing
ĠD ial
ĠDis covery
ĠByz antine
Ġbl oss
ĠRe form
Ġ% (
ĊĠĠĠĠĠĠĠĠĠĠĠĠĠĠĠĠĠĠĠĠĠĠĠĠ ĠĠĠĠĠĠ
v oc
Ġexpect ation
Ġveter inary
Ġbicy cle
C am
ev ents
Ġast on
Ġtransc ription
Ġdelib erate
Ġpredict ive
Ġsent iment
p end
ĠIS O
Ġbub ble
ess ert
Ġev id
Ġsub process
Ġbes ide
Ġl id
Ġl ap
cre as
Ġdro ve
ĠU g
Ġdom inate
Ġsal ad
Ġprin ters
ad ow
ĠLe ban
Ġcatch ing
pol y
Ġm ating
Ġwh oles
ĠW at
Ġbl ast
Ġfasc inated
Ġbright ness
I OS
he it
Ġf onts
Ġass ured
ĠC ele
author ized
ĠRe covery
ĠOper ations
p b
Ġexpect ancy
ĠP O
Ġserv ant
Ġpain ts
ĠGo als
ĠH erm
Ġpossess ed
Log ger
Ġnorth west
ĠP as
ĠZ ion
Ġanticip ate
Ġprest igious
over ty
With in
ĠCa uses
ãĢ Ĥ
ĠE sc
Ġactiv ate
Go vern
ĠB orn
ĠTo kyo
Ġdisadvant age
w ear
Ġf ame
Intern ational
u ci
Ġrot ate
K S
g rowing
t own
Ġcarbohyd rate
ĠWalk er
ĠM aterial
ĠInst itutes
Ġattack ing
Ġeld ers
Ġprolif eration
j s
ĠRe comm
Ġnotice able
Ġe g
Ġvoy age
ĠHe y
Ġdesk top
Ġank le
ĠT ow
ĠRuss ell
j oint
Ġl av
.. ."
Ġout lets
Ġox idation
Ġs age
Ġ" %
Ġconqu est
ĠL iver
et erm
] *
Ġdwar f
Ġacc red
Ġgra ding
Ġrecur ring
H C
Ġa ux
Ġlegisl ature
Ġy arn
ac ious
Ġgen ocide
__ _
li ance
Ġsatisf ying
ĠAbs ol
Â ²
clip se
opath ic
ĠS ize
te chn
rim p
Ġtoler ate
omm y
ard i
ĠClass room
ĠGh ana
ĠSt ra
ĊĠĠĠĠĠĠĠĠĠĠĠĠĠĠĠĠĠĠĠĠĠĠĠĠ ĠĠĠĠĠ
M ac
ĠE ve
Ġhum id
Ex ec
am y
Ġfac ets
EN SE
' \
d ates
Ġspons ored
Ġra y
Ġder ive
b ath
spec ial
ĠS urgery
Writ e
Ġinst itute
att ribute
B ey
Ġh ipp
oun cing
Ġpred ecess
Con f
il is
Ġord ering
ĠB ear
De cember
Ġphotos ynthesis
int age
D M
Ġsh rink
Ġharm less
âĢĿ ).
Ġapart ment
n els
} .
Ġo t
ĠE pid
Ġide ological
ht aking
Ġmig rate
Ġmon keys
Ġbus es
Ġp ier
col lect
Ġdiplom atic
Ġt sun
ist ence
Ġan omal
Ġprivile ges
D esc
p aste
Ġstret ched
: \
U ST
ats on
ol on
Ġdem ol
let ion
coh olic
Ġnic otine
F IG
ot onin
pl ess
Ġsh ine
aut hors
ĠPl ot
Ġcustom ized
v ings
Ġdr astically
pos itions
ĠAut o
Ġseam lessly
ĠO liver
P eer
Ġstr angers
Ġfil t
Ġal mond
ĠCong o
' {
ĠB E
Ġdis able
re pr
L ow
Ġem ploys
Ġra pe
Ġtransform s
Ġcapac ities
Ġmand ate
ot ions
Ġel uc
ext end
ĠF inal
Ġpe ppers
Ġseed lings
Ġpubl ishers
Ġst ub
Ġbo om
Ġj ar
other mal
Un ited
Ġreconc iliation
ĠM olecular
c ert
Ġcon ceived
Ġman ure
Ġlo os
Ġmer cy
ib ling
ĠNorm an
In formation
Ġdur ability
FIL E
Ġde eds
sy n
Ġmini ature
Ġcf g
Ð ´
en um
Ġterror ism
Ġsh out
ĠL yn
ĠPhot os
ĠAdd ressing
Ġran king
Ġcyber security
Ġreal ization
Ġap nea
Ġmarg ins
Ġrevers ed
en able
Ġret ina
Ġcur ricula
Ġguarant ees
Ġn ost
ĠE T
Ġgra vel
Ġcompl aint
Ġrock y
Ġsin us
Ġgradu ated
Ġsem icon
Ġparad ox
Ġt iles
Ġb oring
ĠGal ile
ĠAust in
C le
b rain
Ġc emetery
Ġe ch
** .
Ġur anium
Ġd rones
ĠK ath
wid get
Ġwh it
Ġl acks
Ġfin ances
ĠMor oc
Jan uary
> ',
Ġur ged
Ġcop ied
Ġmain land
Ġyear ly
ene z
Ġment or
go ogle
ĠSpe ech
T reatment
Ġspe eches
W est
Ġlight weight
UT H
Ġoste oporosis
I AL
output s
t ool
Ġdef ending
Con v
exp and
Ġj ury
Ġac ne
Ġfore most
ĠM ike
Ġadolesc ence
f ocus
ĠP el
Ġcr ushed
Ġemerg es
Ġconfig urations
des ign
Ġbreat htaking
Int erest
iz ard
ple ts
D ue
n ative
A ir
S em
and o
Ġnegot iate
ĠR ules
names e
ĠM obile
Ġby pass
ĠHum ans
Ġseam less
Ġdiscre p
ĠCh and
ĠHigh way
Ġamb ient
not es
Ġtransf ers
Ġprof itable
Ġc ant
ic ine
Ġres h
Ġher d
Ġpersonal ities
Ġcompens ate
P AS
> .
en abled
ĠInterest ingly
(" /
ĠIn side
ern s
Ġmicrow ave
Ġlength y
elesc ope
âĸĪ âĸĪ
Ġcapital ist
Ã© t
Ġcle arer
a ire
her ing
Ġpe pt
() [
Ġexcell ence
Ġrein forcement
ĠLuc y
ac ulture
ĠB irds
V ar
pie ces
ĠNav al
ĠCa esar
ĠPh ase
Im ple
ĠWAR RAN
els ius
Ġmal icious
Ġlow ered
ĠEr n
l ined
to k
oot ing
eli very
Ġaccommod ation
( \
Ġfort un
ix on
Ġge ology
Post ed
Ġincent ive
comp et
ĠJ ay
Ġl ined
Ġse q
Ġcal orie
pat tern
Ġcater pill
Ġan terior
Ġgener ators
de ep
sh ine
the ir
Ġun even
Ġstret ches
P I
Ġa il
ĠCom ment
ric anes
Ġinstall ations
) "
Ġl umin
ĠLa ure
Ġtuber culosis
ĠL E
Ġfl oss
Ġst y
em por
R ev
Ġw r
urd y
Bey ond
n one
in cre
ĠDiv ine
Ġprotagon ist
() ))
Ġnort heast
ver bal
ific ance
Ġcred ited
Ġfell ows
g one
ĠNav igating
o S
ĠAd just
Ġhous ed
Ġo wing
Ġan onymous
Ġhon our
ĠEnc ouraging
d ings
Ġg ospel
ess ed
ĠFam ilies
r ators
Ġse als
Ġup wards
ĠHealth care
ĠUk rain
Ġfirst hand
Ġobs ervers
Ġsupre me
k ill
ĠP apers
g rowth
ĠM ade
Ġnon fiction
c ott
ĠW ol
ass ed
Ġsuccess ive
Ġconc ise
Ġsusp ension
ar ange
ud er
d ump
f rames
ĠM is
Ġsupplement ation
Ġn aming
ĠGen etic
Ġfrag ment
ge o
os ke
Ġper v
ĠNor wegian
Ġresemb les
Ġvegg ies
b ank
ment ioned
Th ank
ie ve
Ġred ist
Ġhes itate
ap le
elt ic
se par
Ġide ologies
ĠEm otional
Ġchlor ine
Ġmon ks
B i
ash i
Prof essor
Ġph y
u pload
Ġcollect ors
Ġple ased
ĠÎ ±
EE E
Hel p
Sym ptoms
N ever
} /
ĠE t
rim ination
Ġste pped
Ġgradu ation
product s
W R
Ġl ush
Ġplace bo
Af ric
Ġsym metry
m ile
ĠNapole on
U V
ĠF inding
sub ject
L ocal
ĠG ent
rib es
ĠNich olas
O UT
Ġmerch ants
Ġbron ch
Ġcom et
orth y
Ġcomput ed
iot he
Ġtou ches
Ġsafegu arding
C reating
H ello
ĠT an
Ġout let
Ġworry ing
ĠA SD
ĠIn j
ĠBra h
Ġres ume
rim inal
Ġcab inet
Ġanalog y
d umps
ĠM ason
gg ing
Ġgl imp
Ġglimp se
Y S
Ġ$ \
Ġtick et
ĠPro perty
ĠIde as
Ġb or
qu et
ĠNorm al
s igma
ograph s
Ġang el
Ġcomfort ably
ĠFam iliar
Ġn ons
Ġbur d
Ġeduc ating
Ġpersu asive
ĠG ordon
ord ered
Ġprinc ip
Ġprepar ations
F am
Ġs outheast
ĠHand book
Ġdialog ues
d x
ĠBrazil ian
Inst ance
ĠAust rian
ĠSy nt
ĠComp are
ĠFirst ly
oy d
che ll
udd y
Ġwis ely
Ġsacrific es
Ġl ime
Ġdis semin
Ġcorrect ed
Ġpond s
Ġconst ipation
ĠPot ential
Ġmult icultural
Ġvol atile
Ġpro xy
uth ors
s ix
Ġlit eral
j ar
F our
Q ue
Ġinhib itors
v ars
Ġpred is
Ġw it
Ġang els
old er
ĠGl ass
Ġcrim inals
in se
mer ged
Ġgather ings
ĠI U
um ption
ĠRe peat
ĠFe el
rell a
ow ered
ĠA part
ĠE L
Ġnecessit ates
ĠM orm
ĠSal mon
c ology
ĠGe ological
ah ren
Ġhonest y
Ġderiv ative
ist ing
Ġdead line
ĠT ab
E ss
ul ence
Ġcl ergy
Ġlisten ers
Ġloc om
ĠAl t
Ġmon key
ĠVol unt
Ġretrie ve
Ġc roc
Ġd ors
Ġsh y
Ġsupp ression
': '
N N
Ġappreci ating
Ġform ations
M aking
Ġdr ift
ortun ate
sp an
Ġc aves
Ġanten na
Ġperiod ically
Ġcong estion
Ġag rees
ĠRel ated
ĠLeg isl
ri pp
ĠS anskrit
ĠG ray
Ġra ins
Ġblog s
l inks
L ocation
p ared
ĠR oom
Ġbud s
G M
J apan
ĠI Q
Ġreflect ions
Ġp ins
ĠComprehens ive
B E
Ġpion eer
H y
Ġsuper f
ĠSur v
Ġen ch
Ġnow adays
Ġexp osing
test ing
Ġall ocated
IL L
Ġfacilit ated
Ġfut ures
ĠL ibr
ugg ing
Ġkill er
Ġphyl ogen
Ġche wing
Ġt ile
ound ed
ĠGra du
Ġl am
in av
ĠSh aring
Ġwar riors
Ġshed ding
Ġd ull
Ġst olen
ĠAl b
st ation
ac a
Ġsuccess or
Ġsub ord
l ooking
itch ing
vis ory
Ġalter ations
Ġco aches
us able
sk i
she ll
ce phal
Ġdepart ure
Ġcomprom ising
ograp her
ĠC el
Ġapplic ants
ĠEstab lish
t ools
} ')
ra cle
ĠSt ev
Ġrespons ibly
Ġpursu its
ĠC I
ĠE rror
ah a
Ġdepend ency
Ġgrand father
ĠSen ior
Ġcum ulative
rat io
Ġsc roll
Ġview er
Ġac et
ĠH ills
Ġdop amine
ĠW aste
br aska
Ġvirt ues
Ġsubsid ies
Ġen list
Ġpath ogen
Ġfer mentation
Ġshe er
Ġd ining
Ġwe ird
Ġun ified
Ġsoci ology
Ġm int
Ġsh ake
Ġinter tw
Ġfundament ally
act or
ĠSing h
he red
Ġinev itably
Ġtreat ies
Ġpla us
K ing
S equ
/ '
w arning
Ġtra cing
Ġcrow ded
ĠGand hi
L eg
Ġsurvey ed
Ġtime out
Ġabs urd
Bel ow
ĠD R
dat abase
Ġdistract ions
ir l
ĠMad ison
ĠHait i
æ Ī
ne red
Ġestim ation
h ole
ult ural
Ġredu nd
ĠM ust
Ġconflic ting
ĠAtl anta
Ġbeet les
N atural
Ġhe red
Ġdecl ines
umb ing
ĠS low
Ġevent ual
ĠMag ic
Fore ign
Ġcon e
Ġstrengthen ed
duc ive
ĠB iblical
ĠF light
ili ary
Ġhob bies
Ġb ishop
men u
ON E
b ias
Ġbe ams
ĠE ight
ĠD B
={ '
Ġto ss
Ġle x
Y ear
d elta
ĠAn swer
Ġcle aring
ĠR idge
Ġcart ilage
Ġac oustic
Ġpur ity
Ġlemon ade
app er
osp ace
G erman
Ġcontext ual
Ġremot ely
âĢ ³
Ġdeb ug
Ġdisturb ed
ĠS olution
Ġgl ut
der r
Ġpan creas
N ovember
ro f
Ġex empt
tem perature
Ġorb ital
Ġsol ids
col onial
F I
ĠR oy
ond s
Ġins omnia
Ġpresum ably
Ġsepar ating
Ġembry o
In cre
ĠLet ter
r ase
w ere
C AD
ill o
ĠAb stract
Ġsusp icious
Ġnegot iation
Ñ Į
Ġnow here
Ġspecific ation
Ġtext ures
Ġtort ure
Ġul cers
Ġhar bor
ĠAn throp
Ġelect r
Ġpick le
Ġle ap
Ġrhet oric
Ġm l
Ġst yl
Ġche er
con tainer
sy m
Ġunpredict able
_ ,
Ġunder pin
Ġpast a
ĠP osition
Ġbu il
alu able
ĠIns urance
Ġconfron ted
ĠThe od
ĠF alls
L R
Ġve gan
ro v
Ġso ften
Ġday light
in ner
cl i
Ġcor rid
ocr ates
Get ting
Ġb amboo
ĠOr ange
ĠBl og
Ġbuy ers
Ġprompt s
Ġconqu ered
Ġno zzle
col s
olic ies
Ġcr us
sequ ence
Ġfa una
Ġindu ction
d oms
ĠE u
ĠL eft
ĠPress ure
Ġblind ness
Ġdon ors
Ġpost ing
Ġsecure ly
Ġalter ing
pl atform
qu estion
Ġbath room
ĠElement ary
Ġmight y
ĠHor se
ĠPan el
ou ver
Ġour s
Ġham mer
à ®
ass ing
Ġsand y
ĠTerrit ory
fil ters
Ġhypothes es
Ġpropag ation
ĠN arr
pr ise
enn ial
Ġdemonstr ations
ĠM om
Ġgovernment al
ĠIran ian
ĠR ivers
out heastern
Ġint end
Ġuniqu ely
Ġsp acing
cept ive
Ġweak er
Ġmot ions
Ġto e
as ian
ĠD ays
Ġgrow ers
ĠWh atever
ĠPub lished
ĠC atherine
ĠGreen land
Ġslic es
Ġm our
Ġcontrast ing
ĠK az
utri ents
er ates
ĠElect ronic
r ights
il ial
ĊĠĠĠĠĠĠĠĠ ĊĠĠĠ
cent ral
Ġâ Ī
Ġconsec utive
ĠFlore nce
Ġf og
ic ating
ĠB row
Ġdismiss ed
Ġbegin ners
dis covery
Ġsimpl ified
Ġac upuncture
Ġp ills
Ġb ic
Ġcataly st
ĠY ah
Ġstr ide
T ry
col lection
Americ ans
ĠE asy
SW ORD
Ġsnipp et
ĠC ant
r ational
ĠSecond ly
ĠDet roit
Ġpractition er
ud al
ĠSpec ific
k ers
ĠE ur
Ġemb ody
ĠC leveland
Ġequ ator
ra ises
ĠF resh
Ġhel l
Ġstat istically
Ġregul ators
ĠColon ial
at ivity
Ġprocess ors
ĠCamp bell
Ġlegit im
' },
ic i
Ġcon ducive
ĠR ice
Ġtra ction
d l
ĠP E
ĠD ent
Ġacc ent
Ġcap ita
Ġconfirm ation
ĠComput ing
Ġcy t
S al
Ġcritic ized
Ġp aired
AR D
oph ys
á ĥ
Ġin land
ect ar
ĠSc ale
Ġav oc
ĠCl aud
Ġb ored
Ġb achelor
ent ity
Ġcan cel
Ġl amps
con vert
call back
sem ination
ĠMe eting
Ġcraft ed
Ġcasual ties
Ġw ives
ill ation
Ġd essert
Ġpl ains
Ġcons cience
Ġs urn
ĠAb use
Ġref res
ext ra
ĠE bola
( **
ĠPos itive
d irection
Ġp ockets
son ian
Ġelect oral
Ġband width
O p
ogen ous
ĠConf lict
(' -
loc king
F E
W atch
ĊĠĠĠĠĠĠĠĠĠĠĠĠĠĠĠĠĠĠĠĠĠĠĠĠĠĠĠĠĠĠĠĠ Ġ
Ġadm issions
Ġle ar
ĠSc and
ĠJon athan
: ,
b f
ĠD ogs
ĠLess ons
M B
ĠAss istant
Ġdoct r
ĠJ SON
ace ae
Ġce ase
occ us
Ġplag iarism
B uilding
ĠS ally
Ġlif estyles
ill as
Ġmath s
Ġmetall ic
Ġseism ic
Ġdr one
Ġspect ral
Ġbir ths
Ġconqu er
Ġsur pass
ph ony
IG HT
t aking
x is
en ers
Ġse ized
ĠK ra
Ġhand ler
Ġobst acle
Ġammon ia
ĠGen eration
ĠAlber ta
ĠR u
u ilt
T r
Ġdirect ors
Ġorient ed
Ġintu itive
Ġbrut al
Ġch unks
Ġfl ock
Ġmin ers
EN CE
Ġhom emade
Ġquiet ly
Ġfore nsic
oid al
] ])
Ġgroup ed
f etch
Ġm ph
C are
ĠRegular ly
on line
cre ation
Ġunders cores
Ġgif ted
Ġopio id
ĠB rian
t ick
Ġre nov
Ġoverl apping
ĠLim ited
squ are
ide press
Ġsp are
Ġkey word
Ã© e
Ġlabel ing
ĠW ik
Ġha unt
ad ium
ĠCanad ians
G ER
In s
Ġrandom ized
yroid ism
Ġdetect ive
Ġpup il
Ġb ins
Ġappoint ments
press ure
conf idence
Ġw ished
id o
ĠMy th
ĠBarb ara
Ġp ads
Ġdoub led
Ġhum ility
ĠC rus
ĠColomb ia
Ġsle e
U t
Ġin ert
ĠW ard
Ġcou p
Ġcolonial ism
ĠCl ar
irt ual
p d
Ġundert ake
Ġl ava
ĠV iolence
re lu
ro ots
ĠAb d
Don ald
Ġsk ies
ĠEn joy
Ġensl aved
is en
Ġdon ated
ĠFour th
Ġrec omb
Ġcapt ain
ab el
Ġmem oir
ĠMean ing
m ant
engu in
Ġneighb our
ĠBre ast
P rint
c ra
Ġval leys
bl ocks
odynam ic
id en
col l
Ġrecruit ment
h s
ĠB L
ĠG ran
izz es
ĠDemocr ats
ustain ability
ot ted
comm ands
Ġschool ing
Ġtrav elling
Ġres ide
ĠSe ason
Ġstat ues
Feb ruary
Ġbuil dup
ĠV o
ĠNum bers
J oin
P ower
Ġm ills
Ġar ist
ĠB rid
Ġcere bral
Ġaut obi
for get
ĠDesc ribe
ount ain
OR Y
Ġout reach
Ġste al
Ġund es
Ġric her
Ġar ithmetic
ĠAr n
ĠE ither
orn s
Ġdest inations
Ġw iring
Ġd ug
ĠHe aven
Ġpredict able
Ġmanifest ations
V ideo
ĠC ities
Ġsur plus
ic idal
ĠAre as
Ġmal ware
Ġchlor ide
Ġm erc
âĢ Ĳ
Ġcon gen
op us
Ġclos ure
ari at
Ġprompt ing
Ġinhib it
Ġspont aneous
col ored
Ġdele ted
Ġult raviolet
her ical
Ġplant ations
Ġhyd roc
w ra
Ġg inger
au er
Ġimper fect
Â »
Ġexam inations
Ġcircul ating
ll a
ĠDec ision
im mer
ĠB MI
ĠK am
W ill
el iness
Ġgu ards
Pro perty
Ġmotiv ate
ĠW a
ĠRecent ly
Ġincl ined
Ġthe e
na issance
Ġformat ting
us c
Ġbet ray
Ġmil estones
Ġun aware
Ġl end
Ġcomput ation
S ec
Ġhem isphere
ĠEconom y
Ġfavour ite
Ä ±
ĠW oman
ĠViet namese
Ġsmok ers
b ottom
Ġb ricks
Ġnod ded
Ġrec k
Ġh atch
Ġex ile
Ġus eless
F ull
M ode
R ob
ĠM end
Ġev oke
Ġinv ites
Ġupt ake
Ġqu eer
att ributes
Sh ort
Ġbom bs
Ġrev is
Ġvend ors
ĠM atter
um atic
Ġ" )
ĠDef ine
std out
b ins
Ġske leton
ĠT elescope
Ġris en
Ġtelesc opes
B B
Ġ ĊĠĠĠĠĠĠĠĠĠĠĠ
ah n
Ġwa ist
ĠRes istance
Ġapprox imate
Ġpossess es
supp orted
Ġunders core
Ġquad r
ĠEng age
ĠVill age
Ġt ires
ĠL inks
Ġstr iving
man agement
Ġtend encies
Ġmitig ating
ĠT anz
ph i
ĠDO I
m icro
ĠEm ma
ĠS ources
ĠP rad
IC ENSE
Ġreput able
qu ire
CO L
Ġfro g
ĠE S
ĠD A
ĠM ig
inn amon
ĠKnow ing
Ġiod ine
Ġimpact ing
ĠAt mosp
Ġpack ets
Ġuns afe
Ġind ent
ĠTh reat
en z
ĠP D
Ġimp ressed
ĠY oga
Ġhom eland
ĠA ch
Ġle m
Ġen amel
ĠP in
Ġover ly
ateg ories
ey e
Re al
w ent
ĠD est
ĠU l
Ġcollect or
ĠBab y
B ig
Ġch unk
Ġnot ation
Ġco efficients
es ters
Ġl ent
u er
ĠDou ble
mult i
Ġend orse
requ ently
Ġautom obile
Ġeight eenth
Ġrept iles
ĠD NS
ĠBeng al
con duct
opol itical
an ic
ĠJ oy
ish ops
Ġapp rent
IT E
av g
mer ge
aps es
Ġarchae ologists
Ġneuro transmit
Ġcaps ule
E mb
il on
ĠK le
heart ed
al am
Ġpenal ties
Ġpyram id
Ġoutl ook
op ot
Ġconv iction
Ġconc urrent
ĠK ash
Ġfier ce
M art
Ġd aunting
ĠB ruce
Ġperenn ial
Pro gram
Ġfav ored
fl ags
cont rib
ĠInteg ration
Ġhi king
Ġinjust ice
ĠR uth
Ġco exist
Ġill usion
Ġru pt
Cent ral
Ġre plicate
Ġimp ed
Ġback drop
ser ies
/ )
Ġdis contin
P olicy
Ġel bow
tra ce
c ov
dra wn
Ġs ized
ov ak
ĠEv ents
ul u
ĠC ole
ri el
Ġinv aded
ĠMet a
at ra
en o
Ġin verse
ĠB AS
Ġbar rel
Sh are
ĠB ring
ĠNeg ro
Ġcommod ities
bl ood
re lease
Ġsed iments
Ġwavel engths
Ġpresc ribe
co al
Ġcook ie
P lay
ĠB uff
ant i
Ġbiop sy
Ġb arn
Ġpat ents
comput er
P al
Ġresid ue
comp ile
Ġpion eering
Ġchop ped
ab a
cent ered
e ast
ĠCat hedral
,, ,,
ud ed
ĠNaz is
Ġmult imedia
ĠCost a
ap olis
m os
ob a
const ruct
em p
Ġair borne
ĠSing le
Ġfluores cent
ahren heit
L ooking
id ering
Ġv oid
Ġrec urrent
Ġyoung est
Ġnurs ery
F in
Ġ -------
Ġv est
ĠB aker
Ġbless ed
amm y
Ġfet al
success ful
ut er
Ġman ages
Ġrem em
Ġunf ortunate
Ġst ip
Ġrec ycle
Ġp rag
ĠG N
Ï ħ
ĠM C
Ġillust rating
ĠLib erty
Ġexcer pt
Ġunder way
l ishes
Ġsh iny
ire ments
Ġdiff usion
Ġpr uning
Ġexp ans
With out
Ġroll s
ĠCris is
t urn
ĠC elsius
govern mental
Ġdon ation
Ġant iv
Ġcompet itions
ploy ed
Ġthe ological
Ġbe an
ri k
Ġatt r
ĠAr med
e q
Ø ±
ĠT ut
ĠA ld
ĠV ice
Ġpul ses
Ġid i
Ġweigh ing
Ġmanage able
ĠEss ential
ĠThanks giving
Ġjun ior
Ġmis leading
ĠInter action
Ġc age
ĠH ope
Ġcrit erion
ĠHung ary
F low
Ġflour ish
] ],
ra ise
Ġarr ives
Ġl os
ĠH ob
pl ots
Ġjust ification
Ã Ĺ
Ġre ception
ĠS uddenly
ort ium
ĠHindu ism
Ġe ighth
Ġrem arks
Ġrecip ients
Ġc ube
Ġsim ulated
Ġvers a
Ġdin osaur
Ġende avor
Ġcous in
op ia
ĠN ames
Ġlob by
Ġc ovenant
Sh ould
ĠJohn s
ony ms
ĠRevolution ary
Ġel usive
Ġdepend encies
Ġstain less
p x
Ġele ven
Ġjud ged
ĠT A
Ġen closed
ĠG IS
Ġshort ages
Ġcapt ures
Ġaccess ories
Ġcont raction
ov irus
Ġavoid ance
Ġp sy
Ġg room
ĠOpt ions
Ġannounce ment
Ġt el
Ġd iction
Ġre un
ĠL ack
Ġ- =
Sm ith
ĠM ut
Ġeduc ator
ĠBe hind
Ġschedul ing
* (
PAS SWORD
Ġinfant ry
py plot
Ġbed time
Ġa ph
) }
Ġl ions
verb ose
U lt
Ġcomp uls
eal ous
|' \
on str
ĠH ep
Ġrec ount
ĠHur ricane
Ġclim atic
se ason
Ġd ad
Ġcharacter ization
ĠGreat er
Ġscarc ity
s ets
osc opy
ĠCo oper
Ġqual ifications
gen erated
Ġterror ist
Ġma ize
Aust ral
ĠMed ieval
cont roller
Ġtax ation
Ġwor s
form er
Ġd ressing
ĠColon el
ĠDef ining
ĠList en
ĠT ests
ĠWy oming
c ity
ĠI gn
Ġpropos ition
Ġcher ished
m k
ĠR ico
Ġdes pair
be e
ĠR ud
Ġline age
in burgh
ĠL ooking
Ġreview er
Ġne on
ĠCar ter
ax es
Ġsm arter
ger ies
Dev ice
Ġd ash
') ),
yp ical
Ġhoriz ons
ĠBack ground
x ia
Ġm isc
ĠS ic
vent h
Ġ ###
ĠJ enn
Ġdivid es
Ġspin ach
Ġst aple
reg ulation
ï ¬
in qu
iv ores
ch art
Ġj ail
le en
Ġafter math
Ġske letal
({ '
Ġo vere
Ġgo ats
b ors
Ġp agan
il ization
Ġsu ng
Ġdownload ed
Ġdefic its
red ients
ĠHor iz
Ġgrapp le
Ġs ab
angu ages
Ġaccommod ations
j ournal
Ġrem inis
Ġl uc
Ġjud gments
v s
Ġrecall ed
Ġtack ling
Ġo y
Ġp aved
Ġm ites
Ġsw itched
uel a
Ġgrand mother
ĠClass ical
Ġreact ive
čĊ ĉĉ
A lex
Ġal beit
Ġsocial ist
Ġnoteb ook
urn al
Cl imate
Ġdolph ins
st ructure
Ġst up
read er
Ġanim ated
AM P
ĠG othic
Ġsk i
OR S
yl um
Ġwas ted
af ety
Ġfilt ration
I ES
ust ers
ron ics
Ġbegin nings
Ġpin point
ĠJ ere
Ġpar a
Ġmisunder stand
Ġquestionna ire
J ames
our ge
St ill
Ġep ist
Ġâ ĪĴ
oty ping
Norm al
ow l
Ġres urrection
Ġtend on
Over all
Ġcompos er
' "
pr ivate
Ġcertain ty
ĠPar ad
Ġref lux
i ens
Ġr ounds
ĠR ate
Ġt rop
ĠA post
ab us
ĠD a
ĠRe ality
Ġphotograp her
Å ¡
Ġbe ats
ĠÂ §
Ġveget arian
d uration
ia e
sh ift
To ken
pos ing
run ning
Ġpump ing
Ġincons istent
ĠN othing
Ġbi ologists
v et
ĠDr ive
Ġpig ment
M ENT
rop ract
ĠAssoci ated
-------------------------------- ------------
Ġenfor ced
od ium
Ġwas tes
o ft
ĠNo vel
Ġjournal ism
Ġimagin ative
Ġcart oon
o ise
u art
Ġca f
ĠInst ruction
ĠCons umer
Ġoptim izer
Ġscrut iny
Ġflat ten
Ġreported ly
Ġstrand s
ç »
ĠSy rian
Pres ident
Ġforb idden
Ġcra zy
ĠQueens land
Ġm ars
Ġentertain ing
ĠSex ual
ess ment
Ġsp ur
__ .
Ġl bs
Ġext ensions
Ġtext ile
âĢ ł
ĠB iol
ĠAut ism
TI ES
Ġw ins
Ġshel ves
Ġeng ra
Ġgrand parents
Sm all
in as
Christ ian
Ġben ign
Ġcon sole
Ġret aining
sim ple
Ġmur dered
Ġorgan ised
ĠM igration
Ġvolcan oes
add ing
Ġnit rate
Ġgad gets
at ics
ĠAd ding
ĠOrig in
Ġub iqu
Ġsh ores
ĠL if
Ġtri ple
Ġenhance ment
ĠN ik
Ġbr ass
ĠAd m
Ġphotograp hers
ur ls
Ġlaunch ing
chem y
V M
ĠG ot
e zing
Ġfor ums
Ġmorph ology
Ġc ents
Ġv ibration
Ġconst ants
Ġsummar ize
W HO
Willi am
b low
Ġbl ended
Ġbre ach
ĠRef uge
u int
ĠNe braska
Ġtempl ates
Ġhypot hetical
Ġn ets
Ġcountry side
Ġdisagree ments
ĠC eltic
ĠF ra
Ġbless ing
Ġharness ing
Ġepile psy
ĠM anc
ĠId aho
= _
d c
f ake
f its
Ġpe at
ĠOr d
ĠPC R
Ġexch anged
ĠO P
Ġfl ush
Ġdev ised
ĠInit ially
Ġcoh ort
L icense
C rit
R ich
b ind
ĠG H
to kens
umb ling
Ġrelat able
ĠSe ek
B egin
f req
Ġs ixty
om atic
ur ities
Ġsun screen
G uid
Ġcard board
Ġanest hesia
ĠP ray
Ġsimpl ify
Ġcort isol
ĠLat ino
add le
Ġâ ī
Ġsuff ix
vis ors
> '
us p
ĠG ather
ĠG y
Ġfun eral
Ġadvoc ated
ĠR ou
Ġsh rub
Ġrec ession
Ġisol ate
ĠKnow n
Param eter
Ġst ool
Ġcav al
ĠP om
Ġcit rus
Ġvit ro
Ġam ateur
ĠM t
Ġz oom
Ġsol uble
First ly
ĠM E
Ġmult itude
Ġes p
atter y
Ġchamp ion
Ġk its
Ġoptim um
Ġinvent or
New s
Sim ilarly
ĠMur ray
B R
ĠH i
ĠCond itions
Ġf al
Ġch arm
Ġresearc hed
t ically
Ġp yl
ĠA F
ie u
Ġmet aph
Ġlif ted
al is
ĠS eg
Ġint olerance
Ġdisturb ing
Ġtables p
estab lished
m ag
Ġt ennis
Ġin accur
Ġsal ts
pl ain
ens on
Ġvis ions
Ġbank rupt
ĠPro ced
anc ouver
ĠRepublic ans
gener ational
Dav id
Ġst ark
ĠParticip ants
Ġs ailing
Ġpossess ions
Ġancest ry
Ġcontag ious
Ġlocal ized
with in
Inter face
Ġvag inal
Ġst urdy
Ġintrodu ctory
b egin
ĠCl ose
Ġaer os
Ġpre historic
ari us
ĠSte el
ĠMar ie
M ix
P Y
Ġst arch
Ġgood ness
Ġs aints
Ġembod ied
Ġenlarg ed
el ed
ero ids
ĠÃ ¢
ĠF ew
Ġsuff ers
Ġadministr ator
Ġdos age
Ġopen ness
Ġcaus al
Ġdev ote
ok en
Ġfor age
Te chn
Ġexplos ive
Ġk iss
Ġref ract
ĠC F
ĠG un
Ġfl aws
Ġexpect ing
ung le
Î º
Ġd ances
Ġsh oe
Ġenc oded
dim s
Ġstiff ness
B ra
ĠP rem
Ġn ectar
ay ing
Ġport raits
ĠIsrael ites
Ġphysic ist
ic ans
Ġmet ast
ĠSee ing
Ġsel dom
Ġw art
Ġser otonin
ev in
Ġinstruct ed
ĠCov id
al one
app ro
hib ition
Ġhot els
ĠS ARS
Ġcommun ist
ophy ll
Ġcan opy
D s
g as
r atory
Ġeconom ists
Ġant agon
Ġlog istics
Ġcoll agen
ĠPl ains
D raw
` :
Ġinv aluable
Ġcrow ds
Ġlip id
ĠPit ts
f ollow
Ġpro se
sign al
commun ications
l ived
symb ol
Ġad en
ĠM att
Ġd welling
ĠCh ick
Ġborrow ed
ĠF ill
Ġpo etic
Sh ow
Ġ: ,
ĠSchol ars
Ġregen eration
opot am
s elling
Ġcell ul
ĠDis ney
ath s
Ġprint able
ĠV ers
Ġbo asts
Ġmess aging
Ġin aug
ĠN ut
Ġsc oring
ĠMont real
a an
Ċ ĊĠĠĠĠĠĠĠĠĠĠĠĠĠĠĠĠĠĠĠ
iz a
Ġsc ipy
ĠAr g
Ch oose
> <
Ġaccident al
review ed
ĠS oph
un i
Ġle thal
Ġden ial
te am
sk ip
E num
x cc
Ġovers ight
S ah
ell ite
ĠJ oin
sc ribe
Ġconsult ant
Ġcul p
ĠH ost
ĠEqu ipment
Ġhect ares
Ġimm ort
Ġplant ation
Ġvic inity
bi ology
Ġaer obic
Ġf are
sh ire
Ġover load
ĠProject s
Ġfulfill ment
associ ated
ĠM ia
ĠRe le
Ġenc aps
Ġspecial ty
Ġastron omical
as ci
ĠC ooking
Ġmuc us
Ġcand les
Ġrod ents
Ġbrows ing
Ġm apped
ĠConsider ations
C ap
ie ce
fl ight
pri or
IS E
Ġaud it
Ar gument
ĠFl ood
Ġautom otive
SI ZE
L ondon
Ġs ap
ĠN ord
Ġgen ital
Ġfulf illed
Ġm aker
ĠT es
ĠN ick
hat tan
Ġap olog
CD C
in atory
se conds
Ġtun ed
ĠCorn ell
W ord
ĠS ugar
ĠM ine
ĠAr c
Ġcr an
Ġanaly sts
Ġcomp ares
ilit ating
Ġfix ing
UN D
ĠTop ics
he id
def inition
Ġsort ing
In valid
develop ed
Ġmerg ed
Ġban ana
Ġfinger print
Ġjurisdict ions
Ġm oss
Ġp ause
Ġmen ing
Ġcere al
Ġj elly
Ġa z
Ġswe pt
ĠRail way
Ġb ounds
Ġperform ers
o ffic
ver bs
Ġnews letter
Ġbattle field
Ġco oper
method s
Ġdesign ation
us k
ke eper
Ġpo orer
ĠQu ick
On line
Ġpion eers
) ])
P ORT
ĠT ol
Ġb ree
ĠC auc
ĠG A
uss ions
Ġurban ization
m und
ĠW et
rec ogn
det ails
Ġvig orous
L im
Ġmut ually
t ight
el ia
ĠT rain
ric ting
ĠWar ren
Ġcons on
ĠZ oo
Ġr ipe
Ġbar ley
Ġgene alog
Ġmar riages
ĠAssoci ate
ĠR oll
Ð ¿
Ġs ulph
Ġex ceeds
Ġfl ask
Ġdisc arded
EL L
Ġign oring
ĠDel aware
ĠScand inav
P UT
ab i
An swer
ver ted
ĠDynam ic
Ġpr ince
Ġpenet rate
c orn
rosc opy
Ġre n
Ġ" _
Ġro s
vari ables
M iss
Ġc ath
ĠC ou
N T
Ġz oo
ĠOpportun ities
ĠOut put
n uts
ov ol
Ġcolon ists
L ead
Ġc asc
Ġde generation
ĠL ORD
() ),
ĠSh an
č ĊĠĠĠĠĠĠĠĠĠĠĠĠĠĠĠĠĠĠĠĠĠĠĠ
pect ives
Ġresol ving
Ġsurge ons
ab ad
Ġfam ine
Ġsu ite
ĠCount ries
Ġcoll apsed
cir c
i ably
D em
Ġenl arge
u pt
ĠF ahrenheit
Ġey el
---------------- --------
Ġfig ured
ĠCle arly
Ġb ilingual
ur ved
Ġhas attr
Ġexplo ited
Ġs aint
ĠN H
P aul
Ġhe ir
ĠF ern
ĠF L
ĠR ound
Ġcertific ates
Ġslow ing
au coma
Ġsens it
at om
ĠCon duct
ĠNet works
d ouble
l ag
× Ļ
iv an
ĠG R
Ġmarket place
Ġ> >
al ph
ure rs
Ġfire f
Ġassist ants
Ġg reed
Ġin comes
Ġremind ing
serv ices
/ (
Ġj unk
z ema
c red
ĠH app
Ġcol der
ĠCl ay
Ġlack ed
ĠForm ation
ĠHam ps
Ġly rics
determ ination
mess ages
Ġf ighters
Ġco res
ĠRog er
m c
Ġp ains
Ġupd ating
Ġrefrig erator
Ġit eration
Ġident ifier
Ġintern ally
Ġimbal ances
ĠP ediatrics
Ġunderm ine
Ġconstitu ents
ops is
Ġfreed oms
oc ular
Ġdoub ts
C ustom
Ġp unch
Ġpast ure
ĠL ect
Res ults
Re view
ĠM essage
Ġneuro science
ĠStart ing
Ġattract ing
R ange
S elf
zz y
ĠGreg ory
Ġup grade
ann ers
T w
on ies
ĠTibet an
S ession
Ġel ong
Ġn atives
id i
ĠLine ar
E p
er obic
Ġlo vers
Ġst amps
Ġpoison ous
ĠHamps hire
d ish
Ġreact ors
Ġtun nels
o am
Ġc aste
AR Y
ĠChild hood
M eta
ĠK os
Ġcar pet
bal ance
Ġtur key
Ġhat red
Ġoxid ative
op ping
ĠSt orage
Ġcollabor ations
Ġm ould
Ġform ulated
Ġsign atures
cur ities
Ġdeb ts
ĠV III
Ġang ular
Ġin hal
ĠV enez
Ġd ome
ab we
Ġden otes
LO C
ĠBul gar
ĠHawai ian
Ġharmon ious
du ino
Ġform ulation
por a
Ġproud ly
bul lying
U K
Ġf ighter
ĠS ample
ipp le
Ġlear nt
Ġsh rimp
ĠBul let
U ntil
ĠL ock
ific ate
ĠVen ice
Ġimm ersion
Ġsw ollen
S an
at um
Ġappe als
Ġinequ alities
il ated
Ġhe ater
St at
Ġver ified
Ġen j
Ġend ure
inter val
Ġsel enium
L ight
Ġd s
ĠE ff
ult an
ĠAd ults
ĠRe ason
Ġdepict s
g ia
Ġt am
Ġcommit ting
N R
ah l
rop he
Ġul cer
ĠC roat
Ġle v
Ġirre levant
p oll
lic enses
ĠBut ter
ĠRuss ians
ĠHol lywood
ry s
Ġmin isters
ounc ils
Ġmul ch
" \
Ġbra ke
Ġun expl
arth ritis
Ġz o
Ġfig ur
ĠAtl as
ĠCub an
Ġimpul se
Ġinter cept
D om
ĠT rees
Ġteen age
valid ation
Current ly
ĠS L
Stud ies
ĠBern ard
im ates
ĠS ed
n ik
Ġg on
Ġch airs
Ġsp ike
Ġcy an
p ages
Ġal arming
ĠK an
ĠCham ber
gener ator
ĠP I
ĠSouth west
izz iness
ĠPro tein
Ġalb um
Ġide ally
ĠMel bourne
Diff erent
Ġc uc
Ġvir gin
ĠLab our
Ġp oured
Ġr heumat
mod ules
Ġlic ensing
i our
ĠA id
ĠUs ers
Ġattract ions
uss ia
ĠB P
Ġsc ent
Ġin effective
ĠW atson
ĠCh amp
ĠV A
Ġamb ition
Ġhack ers
Ã ´
Ġexp ands
Ġsett ling
âĶĢâĶĢ âĶĢâĶĢ
T erm
f alse
Ġelectro des
% (
n atal
") ;
Ġst icking
Ġhe el
Ġremn ants
es us
Ġtest ament
ĠAss y
! [
am orph
ĠB us
ef ined
En ergy
o j
Ġfam ilial
pher d
d al
ĠI CT
ĠPat ri
win ning
Ġscre w
ĠQu arter
Ġteen ager
Imple mented
Ġillum inate
b order
Ġsuppl ier
Ġstr ides
IC AL
sens itive
idel ity
end ix
ĠImpro ve
ĠRap id
ĠC ow
Ġdis reg
ĠGe ography
Ġmiss ile
Ġsanct uary
Ġsp heres
Ġprogress es
ĠMod els
ĠProgram ming
Ġwater ways
Ġins ign
anc ell
ĠNe ither
= {}
Ġe go
ĠJ ama
no ise
Ġmathematic ians
ĠR oot
Ġsp ores
Ġlog o
T EST
Ġwor sh
Ġinf ilt
Ġinter change
anc ipation
Ġmeas les
Ù ħ
B est
] ).
Ġbe verage
ĠG I
Ġclass ify
iss ors
Ġaltern ating
Ġblank et
Ġenvelop e
Ġgrapp ling
ar re
and y
ĠAn xiety
Ġmaster piece
ĠTam il
R ober
Ġl ord
Ġg aze
ah u
th alm
Ġb un
Ġl asers
Ġcr ater
Ġdiamond s
N ING
w ig
Ã Ĥ
ai ro
h l
ĠPo etry
act ivation
ĠIn vent
ĠV II
Ġgen omic
ost ics
ĠSt re
Ġ[ (
Ġsie ge
in clude
Ġnation ally
Ġstimul ates
ĠR ural
Ġ-- -
Ġcoll isions
Ġassim ilation
ic iary
Ġi i
ĠEd inburgh
Ġcentral ized
ĠGovern ments
D iv
ol o
Ġcool ed
Ġgenu inely
ĠNG Os
Ġmis use
ĠAc cept
Ġdisc ourag
Ġv ague
ĠRes olution
ust rial
Ġsp ends
Ġaddition ally
} ".
---- --
E ffective
Ġw x
ĠDirect ions
ĠForm at
g rown
ar us
ty m
Ġ_ ,
irm ingham
Pl ace
ĠPear l
ĠUg anda
è ¡
Ġadd itives
Ġroof s
Ġov arian
ig uous
ows ki
Ġutil izes
ĠF oster
ĠDe al
F ast
Ġco op
Ġstring ent
Ġm urd
Ġse ab
ĠU T
Ġbi ologist
Ġgest ure
, )
Ġb rit
rel ation
Ġcontribut or
ĠFil m
ĠPl atform
Ġd t
Ġhome owners
Ġinsist ed
G O
M uch
in ars
Ġgram mat
M AP
Ġw itch
ĠChurch ill
Ã ¸
ĠA chie
Ġle aks
ĠG O
Ġcal f
Ġsun set
Ġleaf y
L at
a que
à ¦
Ġno ises
Ġshel ters
iod iversity
ĠMon te
Step s
Ġsupposed ly
Ġs ibling
Ġhur ricanes
Ġenj oys
Ġd read
Ġor bits
Ġab rupt
ĠConst ruct
Ġanthrop ology
Spec ial
k w
k ward
er ators
Ġestab lishes
cont act
Ġcapt ive
Ġcong regation
Ġoptim istic
Ġexhaust ed
Ġfet us
Ġrac ist
Ġvig or
Ġcreat ively
comput e
Ġpean ut
ĠImplement ing
g om
me al
ĠAL L
Ġcat he
Ġextract s
ĠTrans fer
Ġcollabor ating
ĠMain tain
ĠCalcul ate
ch air
ong o
do ctor
cal cul
ĠScient ist
Ġh alt
ĠV oice
Ġscient ifically
Ġarg u
ĠRed uce
Ġprem ises
Ġdesc ended
c ot
t ake
Ġd uck
ĠEl se
ov ie
y label
Ġt ant
ĠW ash
Ġco ined
ĠIm plications
ĠInst ru
ĠPre t
à¤ °
R est
ane ously
Ġdiagn oses
aur us
ĠFre ud
ĠP LA
Ġant igen
b eth
f ar
anc he
Ġunivers ally
process ed
Stud y
Ġdisrupt ed
Ġr idge
ĠR AM
Ġcondem ned
L anguage
Ġe ats
Ġinn oc
ĠRepresent atives
E s
and om
config uration
Ġmonaster y
ĠH imal
it ures
Ġspec ulation
oc ating
Ġpred ator
ĠA V
ĠM ir
Ġ{} '.
Ġseiz ure
ĠC ort
Ġget attr
inst all
ĠEss ays
Ġdownt own
Dat aset
- ,
r il
Ġreluct ant
Ind ia
iss a
pol itical
ĠR aw
Ġtra ded
Ġsol o
ĊĠĠĠĠĠĠĠĠĠĠĠĠĠĠĠĠĠĠĠĠĠĠĠĠĠĠĠĠĠĠĠĠ ĠĠ
allow een
Ġsour ced
ĠC her
ans om
Ġumb rella
Writ ing
b ucket
app le
Ġvalid ated
Ġcl ocks
Ġstream ing
HO UT
Ġabsorb ing
ĠGene va
ĠCitiz ens
Ġt iger
ill in
Ġdel ivers
Ġwin ters
ĠEx cess
Ġtax pay
ĠFin ance
Ġgi ants
Ġh ast
Ġan nex
Ġsp oon
Ġcharacter ize
amm ed
lex ia
con taining
Ġest eem
Ġcross es
Net work
Ġsh ipped
Ġche w
Ġt il
ĠN it
ĠSu ff
ĠHol land
Ġdeterior ation
] ["
Ġproceed ing
Ġbro ccoli
ĠÐ ¿
Ġ Ñģ
Ġatt ained
Ġfin est
sw ig
^ {
Ġre lic
Ġhyd rop
v ier
id able
Ġret rieved
XX XX
ĠZh ang
C ond
Ġmal nutrition
Ġneut r
Ġman g
Ġover th
ars on
Ġbur ge
Ġreb uild
Ġru in
G ra
ĠLy me
ĠL ud
ĠV el
Ġske ptic
ra ment
sh are
ĠOpt im
Ġdialect s
ĠArmen ian
ĠT ensor
Ġde form
Ġun equal
ĠRelations hips
T aking
ore n
ĠH ousing
Ġle tt
Ġdis mant
ĠRe ich
oc o
ĠSe lection
gl ob
P ut
Ġon ion
ribut ions
ĠBe ck
in ational
ĠC e
lect ric
ĠVerm ont
i ots
Ġthere after
Ġdef enses
Ġinter pol
Ġembry os
ĠRen ew
Line ar
f em
app rox
Ġsubsc ription
Educ ation
Ġcomp elled
ĠFl ag
Ġoptim izing
â Ī
ĠD ance
Ġtemper ate
. âĢĶ
L INE
ĠEx actly
Form at
v iol
ĠK ant
Ġpriv ately
ĠSpr ings
Ġthir teen
Ġreservoir s
Ġtr ump
Ġevap oration
as uring
Ã± o
Ã ª
Ġinc ap
Ġsimultane ous
Ġview point
ĠFl ash
ĠGra ham
Ġplaus ible
c b
ise xual
Ġdest iny
ĠCont ract
Ġembark ed
è ®
el if
ĠJud ge
rel ations
ĠMay or
Ġbur nt
ij i
Ġsail ors
B ER
G old
in ist
Ġvert ically
Ġdilem mas
e ered
Ġstress ors
ĠYe ah
Ġsol itary
ĠAc id
ograp hers
Ġl od
Ġun just
Ġant idepress
Ġc ured
Ġh ats
ĠGu ate
f r
Ġpill ars
pret ation
ĠB ak
ĠG rowing
ĠSecond ary
! ).
imb abwe
ĠWARRAN TIES
is ans
ĠState ment
Ġregul ates
Ġhem orrh
Ġind ef
z ek
il ia
ject ion
Ġcall back
iqu id
e a
Ġalt ar
b ach
t ri
eth ical
Ġsc aff
comp onent
ĠNO AA
ĠPl ans
ĠAra bs
w ild
ist ration
ke e
ident ial
rep o
Ðµ Ð½
p aced
ĠHub ble
g amma
Ġwe aving
Ġadm ire
Ġarsen ic
Ġdec ipher
der ived
w arn
ĠV ancouver
eli ac
ĠSen ator
Ġfundament als
Ġsuperf icial
ĠK ir
Ġdec isive
ĠCont ents
Ġco aching
Ġorig inate
ĠZ ero
P G
p al
Ġw icked
un iform
Ġemb ro
m apping
Ġhun ter
Ġf res
ĠS ie
Ġvibr ations
produ cing
L ib
it ism
Ġdisc ord
ĠSmith sonian
Ġmicrosc opy
Bas ic
æ ĺ
Ġdon ations
met rical
ec d
Ġtext iles
s aving
Ġre named
Ġl b
ĠBe at
Ġprophe ts
T ask
ĠC ells
ĠH alf
Ġment ors
Add ress
Ġampl itude
S cript
comp onents
or f
ill us
Ġdro plets
ĠDiscuss ion
ĠUkrain ian
Ġre q
ad apt
ĠN ode
B esides
o ks
Ġst al
Ġcoc aine
Ø§ ÙĦ
ĠEn lightenment
ĠGen etics
Ġcoast line
Ġenric hed
D el
act ing
Ġev apor
b rown
ĠC ycl
ĠJ en
Ġtop ical
Ġemp owered
Ġamend ments
Ġde port
Ġend point
ele ments
Ġinject ions
Ġeager ly
= ["
ch lor
erg ic
Ġmusic ian
ĠDub lin
ĠW ere
B r
H ey
Î ²
ent ary
ĠP ad
ann ab
EN S
Ġfair y
Ġbudget s
ĠFinn ish
F rench
Ġv i
sw ers
AS H
Ġown s
ĠMan aging
cycl ing
ĠCond ition
Brit ish
M ich
Ġbi os
Ġmel ted
ĠOlymp ics
Ġcaval ry
l ins
m ut
P OS
Ġexceed ed
Ġe agle
ĠSt ri
Ġstation ary
Ġmitochond rial
Ġpy game
Ġnumb ered
Ġweb page
Ġmod ifying
Ġdecom position
ĠConcept s
Ġback wards
Ġiter ations
Ġf ores
Ġdis cretion
x label
if ted
Ġsc rub
ĠM aur
Ġacc us
Ġdist inctions
Ġread iness
iment ary
bo at
ĠBal ance
ĠVal ues
forget table
ut ers
Ġprison er
ur ia
Ġj unction
Ġhold er
mean ing
Ġevid enced
Ġcan als
work er
cles i
ĠW ait
MA X
ĠSign s
Ġbibli ography
ĠA pr
Ġup stream
Ġover coming
B P
Ġsl ot
Ġair way
Ġelectro de
di agn
c row
ĠG ast
Ġall ocate
P ack
s ay
Ġcategor ized
Ġdepr ivation
ĠGuard ian
ĠR av
In c
Ġoccur rences
Ġoun ces
ĠInd o
ĠPublic ations
Dig ital
Ġburge oning
ĠG roups
Im p
M ock
count s
ĠShe et
ĠAb u
ster dam
ĠJosh ua
Ġf ranch
if est
ge on
Ġback bone
Ġcapt ivity
ĠHot el
Ġi Phone
c ro
Ġrespect s
ĊĊ ĊĊ
Ġcongen ital
Ġco ated
Read ing
tox ic
Ġquant ify
V ersion
ĠC hes
Ġche fs
Ġter ra
Ġindic ative
Ġmort gage
keep ers
Ġlivelihood s
ĠL ives
Ġreg ain
ĠTem perature
urch ase
Ġw aking
Ġcal ibration
aph rag
ĠS ikh
ruct ose
E ffect
an mar
Ġany time
aff e
ĊĠĠĠĠĠĠĠĠĠĠĠĠĠĠĠĠĠĠĠĠĠĠĠĠĠĠĠĠĠĠĠĠĠĠĠĠĠĠĠĠ ĠĠĠ
ĠExp ression
Ġlibert ies
l ists
per formance
the se
it ating
le v
Ġ' {
ĠF ear
Ġarchae ology
ĠEx cell
ĠV ict
Ġteasp oon
Ġdetect ors
ĠSte in
Ġscal p
e ach
Ġland marks
Ġt k
Ġsp ans
ĠH orn
Ġcor pus
ĠHarr ison
pe er
Ġalkal ine
Ġmy el
Ġaug mented
tain ed
Ġhyp oth
Ġthe r
Ġforecast s
if ts
FOR M
% %
t ailed
ĠR ES
ĠTanz ania
lu ent
Ġnarr ator
Ġde pletion
Ġthere of
Ġback ing
Ġbar rels
Ġcompl ain
Ġun limited
Ġdesper ate
p ars
ĠL ag
Ġeng lish
ĠMe et
ĠHel en
Ġremind ers
Ġhel met
Ġconstruct s
Ġmiscon ceptions
ĠLeban on
ĠC rypt
ĠEx posure
Ġbas al
Ġrecover ing
Ġgra phe
Ġallerg ens
i am
m ol
Ġcough ing
Ġmen opause
Ġpra irie
Ġpro to
ĠP S
Ġany body
Ġsc ored
Ġmeant ime
Î ¯
Ġha w
l arge
Ġf el
ĠM T
Ġir res
ĠCh art
Ġplan ners
Ġrain forest
ĠLeg acy
organ ization
Ġf ishes
Ġconstell ation
gom ery
g ard
Pl ane
ĠElect rical
on ce
Ġqu izzes
Ġbl ues
ĠDi am
Ġshar ply
Ġfoot age
vis ible
s ampl
Ġt idal
atern ity
W ar
Ġmod elling
Ġsign ifies
Ġoper a
Ġom n
ĠInter ior
ĠDist ribution
Ġpro w
Ġknowledge able
Ġcalcul us
Ġe clipse
ear th
Ġmaneu ver
Ġch ol
Ġstr anger
ĠW ire
Ġspecial izing
J ournal
up us
ĠVal ent
Ġpro claimed
Ġblu eprint
Ġc ass
Ġth igh
ĠW aters
Ġlong itudinal
Ġf aint
ect ive
fil m
ĠPers pectives
bas ic
ĠReg iment
leg end
F N
l arg
ĠCh anging
Ġdisc ourage
Ġexpect s
ĠSign ificance
sur face
App lication
Ġvigil ant
EC D
Ġantim icrobial
ĠH D
ustom ed
oe ing
Bet ween
od ic
Ġr ud
IC T
Ġtim ed
Ġtransf erring
ann on
Ġabbre v
Ġtsun ami
og an
ĠL it
Ġintu ition
Ġnanop articles
L ength
Ġphot ographic
Im pro
b ounds
Ġh ips
Ġun cle
Ġmission aries
Ġju ices
Ġcoc oa
ERR OR
Ġb ending
ra is
ĠD in
Ġgen omes
ĠBe hav
ĠF itz
Ġun ve
cell s
Ġlisten er
k eras
ĠK ur
amp us
Ġcat ar
Ġopen ings
Ġseason ed
o arthritis
ĠT ru
ĠW ear
Ġinc arc
ĠChar ter
Ġfort ified
Ab stract
Ġde ities
Ch annel
develop ment
Lay er
Ġoccup ations
Ġgar ments
Ġderiv atives
ĠMan hattan
et ta
Ġdead lines
Ġcr ashes
Ġf ond
Ġfore front
ĠEpid em
ĠB enn
Ġaw ake
Ġ< /
ĠMorm on
Ġfol lic
ĠWh ole
h on
Ġg ems
ĠB ou
ĠDis play
V itamin
ĠMit chell
Ġass ay
ĠIncre asing
Ġcommem or
T ur
c uts
govern ment
ĠHung arian
Ġpancreat ic
ĠR w
Ġbacter ium
Ġresid ues
Ġw rest
l ang
Ġimp osing
av an
Ġpath ology
ĠBas ics
Wid gets
Ġtail or
p aid
Ġdis gu
Ġdiplom acy
ber y
supp ort
You ng
Ġpert inent
P resent
Ġp acks
Ġsp ouse
Ra ises
Ġt ribute
rom b
ag ogue
Ġinit iation
Ġhierarch ical
Ġse aw
reg ated
Ġsecret ion
Ġspecial ize
ĠTr inity
bl ind
Ġc hess
Ġyield ed
Cl oud
ĠS old
ĠK er
Ġrece i
Ġphosph ate
Ġnick el
Fact ory
o oth
Ġass urance
Ġdep ressive
ĠInteg rated
ph ot
Ġpenet ration
oun sel
Ġremark ably
fund ed
Ġ< <
Ġdoctor al
ĠPier re
ĠP ET
Ġca red
b ands
Ġtechn icians
ellect ual
aw i
Ġhair s
Ġassist ing
Ġsor ry
ĠLic ensed
le e
ĠThe atre
Ġbal ances
fol k
Expl oring
Ġchar coal
D IT
if ers
ac o
Ġso res
ĠK el
Ġthick er
osc ope
ĠCollab orative
ĠFem ale
Ġre con
G C
d og
Ġto ps
Ġtrack ed
Ġsubmar ine
et tes
ĠAltern ative
Ù ĩ
at able
Ag ain
Environment al
ter ing
ap a
Ġtheore m
Ġinver te
- >
n ih
ĠH us
Ġob edience
Ġtri angles
I ts
int s
Ġr anged
Ġhapp ily
de hy
Ġbless ings
d ensity
Ġl ays
Ġbi ased
ĠDynam ics
Ġwor sen
ĠSt orm
Ġsym pathetic
ĠOff er
an im
ĠB irmingham
del ay
Ġfortun ate
Ġleg acies
Ġdistract ed
Ġwh olly
ab ol
Ġrest s
Ġencompass ing
ĠI EEE
C ost
ĠT ang
ĠW es
ĠV ent
old ing
eng ue
ĠLe ave
Ġasc ertain
ut ral
sy nc
Ġappear ances
Qu ery
ĠS weet
ul ed
Ġtw ins
Ġaw kward
ĠGa ussian
t reatment
ĠS cre
set ting
ber ty
all as
Ġsl aughter
ĠLiter ary
d one
Ġconver gence
B ody
Ġcont end
Ġchap el
optim izer
S am
ĠN iger
Ġvict ories
Ġblow ing
ĠĠĠĠĠĠĠĠ ĠĠĠĠĠĠĠ
Ġtr ivial
c reat
m ig
ĠConst raint
Ġtutor ials
ĠM artha
ĠR N
Ġleg umes
oll ar
Ġmira cle
ĠB ir
ĠG E
Ġnom inal
Ġad hering
Ġdraw backs
ĠHar per
Ġtransmit ting
Ġdispers ed
on ge
arr ison
Ġsal aries
f p
So ft
Det erm
ĠJu venile
Ġfamiliar ity
Ġcand le
ĠEv ans
ĠM aps
Ġfuel ed
Ġsubmit ting
ĠT ag
ĠStan ley
Ġsearc hed
Ġconvict ed
D ir
S un
ank ton
ĠCo ff
open h
ail ability
Ġsince re
Ġce ased
Ġset backs
Ġdistingu ishing
ar o
Ġde ity
ĠCom mercial
ar ah
Ġfor k
ĠA A
ĠSet tings
Ġinterview ed
n b
iv ist
Ġcar bs
Ġleuk emia
id ian
ig g
ĠM aced
um ed
Ġhonest ly
k t
ass ador
Ġmon oxide
ĠExper ts
d ale
rough ts
Ġtest osterone
Ġbr ig
odynam ics
Ġdilem ma
EN TS
ĠN early
bor ough
Ġtick ets
accept able
Ġexec uting
Ġundert aking
Av oid
ĠC ounter
ĠL ion
OW N
oc l
ĠTh ai
ER V
Ġcoat ings
Fam ily
E W
ĠL ex
Ġhero ic
ins p
ĠMil ky
Ġun forgettable
V II
ĠPark er
ĠBehavior al
Sah aran
at itis
Ġpro ceeds
Ġbi ochemical
Ġland fill
Ġexpress ive
organ ized
Ġsupp ressed
Ġcry ing
Ġban anas
ĠLe o
Ġretail ers
ab olic
Ġinter mitt
fit ting
Ġargu ably
ĠB ranch
ell ows
so lete
Ġsur geries
Ġcor ps
Ġwar rior
ĠEth ical
> "
m iddle
al ach
Ġg arn
Ġstat istic
ĠRequ est
Ñ ĩ
ĠP regn
ĠL l
Ġsqu ad
ĠPort land
Ġresol utions
X R
ne igh
m oil
pro duction
gen e
Ġhyd rated
Ġdisappoint ed
ĠSol id
c ool
Ġcustom ary
at onin
ĠV ul
AN G
ĠÂ µ
r ill
rou t
ards hips
br ids
att rs
check ed
ĠGr iff
Ġb ump
ĠEm ail
Ġhyd rox
s ince
Ġimp ressions
Ġgo at
Ġexpress es
Ġmon archy
Ġprogram med
Ġmanip ulating
Ġvow el
ĠK elly
ĠAt hen
Ġmal ignant
S erver
Ġen light
ä¸ Ģ
ĠGir l
ĠWIT HOUT
ĠC emetery
Ġafter ward
RI G
ĠSpe ed
ag les
ple mentation
Ġsil ly
ĠSur face
ĠMil k
Ġdisproportion ately
ul ators
Ġfabric ation
ĠF ine
An n
ĠP ole
fun ctions
ab stract
Ġall ied
Ġmisunderstand ings
ĠR T
Ġnew est
g ray
Ġfault s
Ġregim en
Ġl amb
ĠFun ctions
/ %
Ġprofess ions
T ag
en cer
Ġf etch
ĠL ever
Su per
arm ed
Th ird
Ġmet ropolitan
Ġintest ines
(( -
Ġvill agers
cal c
Ġindic ations
Ġgarden ers
ĠPrepar ation
Serial izer
Ġv intage
ĠR ol
ĠN y
ĠZ ika
Ġra v
az i
Or der
Ġroll er
ĠBal ancing
Ġimpul ses
Ġdors al
id y
ĠDeterm ine
Ġst agn
Ġdis closure
ĠGr ass
Ġhered itary
ou rable
Ġe uro
ĠL ad
Ġform idable
et us
ĠR is
Ġagg ress
Ġmo ons
ĠCy cle
Ġubiqu itous
ĠS R
Ġsens ible
ĠCreat or
link ed
ĠAc ross
Ġforecast ing
Ġ ĊĠĠĠĠĠĠĠĠĠĠĠĠĠĠĠ
us a
Ġcomp ass
Ġmod eration
Ġtrou t
P red
oph obia
Ġtow el
Ġbe ating
Stand ard
et al
ĠK i
m eter
ĠS it
pl iance
Ġimp ress
ĠSt ream
Ġbomb ing
å Ľ
ab e
"] :
ĠGir ls
Ġcl ips
ĠPat ient
Ġcomment ed
ĠB M
Ġsom etime
Ġexc use
Ġwet land
D ATA
t oo
Ð ·
in formed
Ġall oy
ĠSupp lement
p ron
ĠR ing
Ġtra des
A st
S ET
s ame
Ġdepr ived
Ġcho oses
anc el
ĠLith uan
ro e
ĠF ailure
urg y
c rop
in ians
Ġunder went
Ġbroad en
Ġwel coming
s pl
Ġc rick
Ġb il
am as
ĠReg ulation
Ġre usable
ĠQur an
pend icular
P AR
Ġadd itions
ĠNo ah
Ġlic enses
D an
Ġp g
Ġl adder
ĠB ald
Ġsp y
Ġey eb
Ġconduct or
ĠSur ve
Ġiron y
Ġmathematic ian
S ave
ĠTurn er
o que
Ġout dated
add ed
O ptions
Ġtox in
ĠMedic are
ĠSche dule
çĶ ¨
m ajor
Ġsm ells
pop ulation
ov al
tle ment
Ġprof icient
Ġm osaic
Ġar rows
Re cipe
Î ³
ĠRecogn izing
H ER
Ġsh aking
Ġtw ists
Ġprem ise
Med ical
Ġexcav ation
Ġanomal ies
Ġsuper v
h oe
Ġro ds
ES C
ĠCoast al
Ġtrav elled
. \
Ġh ardships
ur bs
Ġsocial ism
Ġgrad ers
Ġt ed
Ġal ly
Ġvers atility
Rep ort
qu is
Ġtim er
Ġcopy ing
ĠPat terns
Ġillum inated
Ġdis semination
ther net
eb ra
ynam ic
f ixture
ĠF al
ĠG ro
US E
Ġvast ly
S eries
Ġch alk
Ġcur s
Ġrelax ing
ĠTer ms
dig it
Ġow l
O bs
Ġun authorized
Ġdeb ated
Ġsampl ed
Ġgate way
: ",
T arget
^ ^
â Ĺ
Ġcl og
ĠTe a
Ġfig uring
Ġpatri arch
Ġcohes ion
m ad
Ġstri pes
ð Ŀ
Ġt ails
ĠS ib
ĠW ays
Ġgra ves
ĠGard ens
Ġan arch
atic an
inter face
Ġhead lines
reg ulated
âĢĿ ),
Ġprevent ative
Ad v
Ġstabil ize
ĠLay er
ĠRich mond
ĠEs pecially
Foreign Key
Ġo lig
oc om
ĠW A
eg rad
Ġanaly se
m ate
ĠAccording ly
Ġste ering
Ġed itions
ĠDe an
ĠT I
pp e
s i
in itions
ĠK rish
([ [
ĠInc orpor
ĠInst all
mem bers
idis ciplinary
assert Raises
Ġbra very
[: -
Ġboost ing
Ġsho ots
Ġpost doc
ĠSp ot
Ġhurd les
char acter
l ated
ĠT ropical
l iving
ĠE ug
utri ent
Ġburd ens
å Ĭ
Ġn ap
Ġflour ished
Ġswallow ing
Ġs ailed
ial og
ĠD ragon
Ġj ealous
Ġcere als
ĠMi ami
Ġe ps
Ġapp re
Ġchair man
b ishop
â Ĩ
icult ure
bal anced
at on
ĠPrad esh
ure r
rig ger
ĠN T
Ġpre cursor
ne e
Ġnon etheless
ĠNe eds
unit test
ĠD ys
ĠV it
Ġoff enders
pre v
ĠSte ven
Ġshut tle
Ġphysic ists
Ġp ant
Ġreminis cent
Ġt enth
Ġa uction
Ġmon ster
Ġorig inating
Ġconcent rating
l ia
Ġcompost ing
Ġgraphe ne
ly cer
Ġspec ifies
ĠEx pect
Opt ional
Ġimprison ment
Ġprep ares
Ġnic ely
Ġtor que
ĠCamb odia
l asses
O x
Ġanalys ed
Ġexceed ing
Ġeru ptions
Ġblood y
Ġdetail ing
rac ies
æ Ĺ
ed es
Ġan ecd
Ġinf amous
ĠC up
ort ions
ell es
ĠIm aging
bel ie
Ġmicrobi ome
Ġf ights
process or
ader ie
Produ ct
ar aderie
ĠAm sterdam
ĠSupp ly
t asks
Ġred emption
ac s
Ġse curities
Ġbed room
Pl an
Py thon
r ules
ĠA verage
ĠBud get
ĠThe ore
ĠAdv ance
ĠAdm iral
ovol ta
Ġpres idency
l ene
ok u
ĠFe atures
ï ¿
ed ar
ĠF el
Ġpop ul
Ġinteg ers
Ġimpair ments
ĠManc hester
Ġculp rit
M IN
arent ly
ĠFil ip
Ġbreakthrough s
G T
Ġestim ating
ĠAustral ians
ĠNov a
Ġambig uity
ĠM ak
Ġco arse
ĠMay o
ĠExpl orer
UN T
ĠW or
ight ed
stud y
G ui
ou x
ĠB reat
Ġexpend itures
our t
Ù Ĭ
ĠContin ental
ĠPsychiat ry
W E
Ġtrans ient
claim er
l ibrary
ĠSe ed
B V
E th
g ering
Ġsh ale
Ġconf irms
Ind eed
Eng ine
Ġbel ts
Ġstart up
Ġdem ographics
Ġstrateg ically
ĠPract ical
ru its
Ġpar alysis
âĢ¦ âĢĿ
Ġinv itation
fu els
ĠWorkshe ets
Ġt read
ĠB un
Ġint ros
ĠSom ething
ĠSl av
ĠCharacter istics
ac i
Ġed s
Ġneut ron
ies el
ue z
Ġur gency
Ġprob abilities
C F
re th
ĠT oxic
ĠF ol
ĠArch ive
Ġsqu ash
ĠClass ification
u ber
č ĊĠĠĠĠ
Ġmeaning fully
ĠGra ce
y aml
Bl ue
ĠM ack
ĠH earing
Al tern
Ġail ments
ĠF ou
Ġant iquity
itution al
IL ITY
Ġcom edy
ĠL I
ĠG ay
Ġmeas urable
ĠBegin ning
Ġhand writing
def ine
Ġin security
ĠB ened
ĠDem ocracy
Ġm ism
Ġh ug
ch r
Ġdec oration
ĠProv iding
Ġreven ge
Ġspl end
ro cess
Ch ange
Ġheav ens
Ġpel vic
H um
am ph
Ġmant le
ĠInt el
Ġre charge
Ġsusp icion
ot er
Ġcalcul ates
S ELECT
y ellow
Ġam erican
Ġvol t
HT TP
ed ical
Ġport al
Ġcontract ed
Ġweight ed
Ġsqu ee
ST AT
Ġmel ody
Ġorb iting
L U
ĠG on
ph thalm
enc oder
Ġmelan oma
= %
Ġf ines
DE FAULT
pert ure
n ets
Ġab uses
Ġev angel
me asure
Ġextrem es
othe li
Ġbol ster
P erm
r type
ĠK ab
Every one
Ġt a
top l
Ġd izziness
ĠD VD
Ġmark ings
Ġconduct ivity
Ġauthors hip
ru nt
ĠPitts burgh
Ġst ric
Ġacc ustomed
ĠAlexand ria
Ġcor als
ĠCor inth
ĠR osen
Ġx ml
Ġenthusi astic
Ġass ure
Ġfl ames
ĠNot Implemented
Ġv as
t alk
Th omas
St ream
essor i
Ġambig uous
Ġinf er
Ġdu plicate
inv asive
Ġimprison ed
P an
ĠPred ict
Ġmodel ed
orith m
ĠCN N
de ad
Ġsh ocking
AT CH
ĊĠĠĠĠĠĠĠĠĠĠĠĠ ĊĠĠĠĠĠĠĠĠĠĠĠ
Ġskeptic ism
Ġen closure
Ġforest ry
ĠMod ule
ĠCharl otte
Jew ish
Ġm s
ĠZ imbabwe
Ġunus ually
Ġbapt ism
R oman
requ ent
ĠInf antry
ĠMoroc co
m ight
ĠP ant
Aut o
g z
an aly
ĠF riend
Ġrecru ited
ĠB od
Ġher pes
Ġcam araderie
Ġperv asive
É Ļ
or atory
Ġatt ribut
ĠDisc over
Ġnurt ure
Sum mary
P ot
ĠL ost
Ġcur v
M aster
ore ct
ace a
ath a
ĠBl oom
Ġpolyn omial
Ġa pe
id ad
ĠT as
Ġinter rog
g un
an ation
Ġpen insula
Ġcust ody
Ġp enn
Ġb red
est on
Ġdisrupt ions
ath on
Ġpul s
H en
Ġpredict s
Pl ant
LO W
Ġtur moil
Ġclean up
ĠSal v
OL D
Ġprotagon ists
Ġit ching
Ġadd itive
Ġlit igation
ĠBut ton
Ġexerc ised
Ġt s
ract ed
Ġresp iration
Ġske ptical
Def ault
Ġdiction aries
ĠDiff icult
Ġbiom edical
Ġrev ival
Ġneur on
ĠStat istical
Hist or
Ġdisagree ment
ĠFac ulty
ĠLibr aries
Ġp als
ĠB ert
Ġoptim ized
ĠAir port
Â ´
Ġst ove
Ġexhib itions
Ġcong reg
Conn ection
r ass
ograph ically
Ġnoun s
Recent ly
Ġut ens
" }
or p
Ġrel ent
Ġgast ric
C y
ĠSt uart
ĠCommission er
J esus
ĠS ustainability
ĠD ow
ĠSh i
IC S
ĠHe in
D ele
Ġdifferent iated
Ġens ured
Ġcompet encies
function al
b is
ĠEnd angered
Ġaccept s
ra h
Ġen lightenment
Ġdiscrim inatory
ĠRich ards
sc al
Ġindustrial ization
Ġpeas ants
ĠM W
_ .
ĠG em
Ġprepared ness
ĠL ane
Ġinf erence
be ck
Ġwid ow
in valid
Ġh ull
ĠY an
Ġcher ry
ĠSuccess ful
ĠCho osing
ĠAd visory
Ġster ile
B o
Ġflood ed
sor iasis
Ġfrust rating
C ell
RE AD
igraph y
U CT
un ed
Ġdi aphrag
Ġlat ent
Ġexist ential
ĠInst agram
cons ider
Ġworth while
Ġcab bage
ĠPartners hip
or able
im ming
ist ine
oc ard
ĠK il
Ġunder gone
prot ected
Ġinterven e
er acy
Ġmay or
aff ected
Ġcred ible
Ġsed entary
ĠMont gomery
Ġdocument ing
ĠA G
Ġse ated
ĠG RE
ling ton
Ġcin ema
ip es
Ġher ds
Ġes c
Ġcontact ed
Ref erence
ĠCoal ition
Ġcompuls ory
S il
P sych
ll ib
Ġreg ret
w hy
ig ers
Ġrep orter
Ġcol oured
Ġfri ed
Ġpolit ician
Ġcontract ing
Ġmod ular
Ġland owners
Ġfasc ination
Ġsan ctions
ĠOccup ational
Ġjudge ment
ĠBullet in
Ġday time
Ġv iability
Ġunderstand able
ĠEx ternal
Ġben z
ĠÂ «
Ġconfig ured
Ġrect angle
Ġencrypt ed
Ġth rew
ĠS I
Ġsp arse
Ġdesert s
Ġic ons
Ġadorn ed
Ġproc ure
Ġless en
/ >
se gment
Ġdefend ant
ĠPubl ishers
re aching
ĠV as
Ġev al
Ġfurn ace
ÑĢ Ð°
Ġbeet le
f ac
ĠB our
Ġexplore r
plug in
Ġs erm
it as
Ġgraph ical
Man agement
Ġdissol ve
Ġs outheastern
Ġab norm
ĠCirc uit
M ass
d ark
Ġre he
Ġle ase
sc ar
ĠStep s
Ġadvis able
ĠSat an
Ġmer its
Ġexception ally
ĠH alloween
ack ing
ĠSt rait
Ġpoll uted
ĠArt ists
Ġpolym ers
c ale
re ason
ĠB urg
ĠF O
ĠL DL
Ġcl an
Ġcur b
IN FO
arv ation
ĠM ail
out ube
ĠEm phas
cons uming
ĠRab bi
apt ure
Ġreb els
P o
Ġun successful
Ġro ver
ĠPres ervation
ĠTrans form
prim ary
st ery
og y
ous ands
ĠWall ace
Ġpunct uation
Ġs pp
Ġrun ner
ĠCl ient
ĠPower Point
Ġuncon ventional
Ġl azy
Ġdist orted
ĠPro perties
ĠCl are
Ġphot ons
Ġprogress ively
Ġgrant ing
c n
Ġd ire
čĊ Ġ
Ġder ives
j ah
Ġoff ense
ut ory
ĠMes opotam
Ġcollect s
ĠExper imental
A p
ĠT i
Ġsp herical
ĠSh aw
gra v
Ġarm or
rust ed
Ġun changed
Ġsw ings
ont ally
Ġ} )
ĠOrgan izations
N F
ir uses
Ġpain ters
en es
Ġmot ives
US ER
ĠOm ega
qu isition
un al
Ġent ang
Ġpropos es
W orking
ch in
pay load
Ġgo ogle
ĠAtmosp heric
m ala
iv itis
ĠE SA
Ġprom inence
Ġcourse work
att ice
Ġbase ment
+ "
Ġcarbon ate
F un
get Logger
Ġgr as
rad ing
ĠLib eral
) ",
l antic
qu est
ĠN R
Ġunderstand ings
Ġbehaviour al
C ould
W ashington
ra ising
V s
g old
Ġby te
Ġsp aced
Ġself ish
Ġreg iment
Ġsem antic
ĠRock y
Ġc innamon
Ġw omb
chie f
Ġlecture r
Ġresemb ling
Ġ' ',
asc ar
Ġbund le
ourge ois
Ġtire lessly
S at
Ġenroll ment
vant ages
T ips
ĠT ao
Ġsp at
Ġdem ocr
Ġmission ary
ĠHind us
P rior
o ct
Ġcar ot
Ġcounsel or
oc aly
ĠK IND
Ġsan it
Ġsol vent
ĠDis abilities
i per
s ometimes
å ľ
qu in
ĠL ot
round ed
com merce
(" %
Ġm und
ĠK evin
ĠReg ulations
cel ain
ĠJud ah
Ġlett uce
Ġd ancers
Ġab used
ĠNurs ing
Cong ratulations
Ġb ile
Ġd roughts
sc hed
Ġhe mp
Ġinv ari
Ġconstit uted
Ġmeticul ous
Ġspe ar
Ind ividual
A h
res pect
Ġpo orest
ĠCir cle
om aly
ĠC ategory
chan ical
Ġmanifest ation
Ġrational e
ĠC od
gg le
Ġbrow se
Ġincons ist
ĠS ut
Ġprosper ous
Ġmunicip alities
Ġenrich ment
ĠDI Y
Ù Ī
Ġw ines
Ġne c
ĠMedic aid
Ġexacerb ate
an us
ib ular
ĠAr duino
ĠÐ ²
neg ie
Ġesoph agus
ĠH end
ĠR s
Ġsh ining
ĠAl ban
Co V
/ "
em ann
ĠMet eor
Ge orge
educ ation
G H
ĠA TP
Ġex ting
Ġparliament ary
} '.
ĠH at
ĠG ates
Ġcho res
ĠDo ctors
inn itus
× ķ
Ġl ending
ĠB ath
iz ards
Ġtodd lers
Ġp all
pos ium
Ġcontract ors
Ġs igma
Ġf als
et c
Ġtransport ing
Ġl aund
[...]
